unsigned char pruned_quantized_tflite[] = {
  0x20, 0x00, 0x00, 0x00, 0x54, 0x46, 0x4c, 0x33, 0x00, 0x00, 0x00, 0x00,
  0x14, 0x00, 0x20, 0x00, 0x1c, 0x00, 0x18, 0x00, 0x14, 0x00, 0x10, 0x00,
  0x0c, 0x00, 0x00, 0x00, 0x08, 0x00, 0x04, 0x00, 0x14, 0x00, 0x00, 0x00,
  0x1c, 0x00, 0x00, 0x00, 0x80, 0x00, 0x00, 0x00, 0xd8, 0x00, 0x00, 0x00,
  0x48, 0x5a, 0x00, 0x00, 0x58, 0x5a, 0x00, 0x00, 0xd4, 0x66, 0x00, 0x00,
  0x03, 0x00, 0x00, 0x00, 0x01, 0x00, 0x00, 0x00, 0x04, 0x00, 0x00, 0x00,
  0xe2, 0xa4, 0xff, 0xff, 0x0c, 0x00, 0x00, 0x00, 0x1c, 0x00, 0x00, 0x00,
  0x38, 0x00, 0x00, 0x00, 0x0f, 0x00, 0x00, 0x00, 0x73, 0x65, 0x72, 0x76,
  0x69, 0x6e, 0x67, 0x5f, 0x64, 0x65, 0x66, 0x61, 0x75, 0x6c, 0x74, 0x00,
  0x01, 0x00, 0x00, 0x00, 0x04, 0x00, 0x00, 0x00, 0x9c, 0xff, 0xff, 0xff,
  0x0e, 0x00, 0x00, 0x00, 0x04, 0x00, 0x00, 0x00, 0x07, 0x00, 0x00, 0x00,
  0x64, 0x65, 0x6e, 0x73, 0x65, 0x5f, 0x31, 0x00, 0x01, 0x00, 0x00, 0x00,
  0x04, 0x00, 0x00, 0x00, 0x92, 0xa5, 0xff, 0xff, 0x04, 0x00, 0x00, 0x00,
  0x07, 0x00, 0x00, 0x00, 0x69, 0x6e, 0x70, 0x75, 0x74, 0x5f, 0x32, 0x00,
  0x02, 0x00, 0x00, 0x00, 0x34, 0x00, 0x00, 0x00, 0x04, 0x00, 0x00, 0x00,
  0xdc, 0xff, 0xff, 0xff, 0x11, 0x00, 0x00, 0x00, 0x04, 0x00, 0x00, 0x00,
  0x13, 0x00, 0x00, 0x00, 0x43, 0x4f, 0x4e, 0x56, 0x45, 0x52, 0x53, 0x49,
  0x4f, 0x4e, 0x5f, 0x4d, 0x45, 0x54, 0x41, 0x44, 0x41, 0x54, 0x41, 0x00,
  0x08, 0x00, 0x0c, 0x00, 0x08, 0x00, 0x04, 0x00, 0x08, 0x00, 0x00, 0x00,
  0x10, 0x00, 0x00, 0x00, 0x04, 0x00, 0x00, 0x00, 0x13, 0x00, 0x00, 0x00,
  0x6d, 0x69, 0x6e, 0x5f, 0x72, 0x75, 0x6e, 0x74, 0x69, 0x6d, 0x65, 0x5f,
  0x76, 0x65, 0x72, 0x73, 0x69, 0x6f, 0x6e, 0x00, 0x12, 0x00, 0x00, 0x00,
  0x6c, 0x59, 0x00, 0x00, 0x64, 0x59, 0x00, 0x00, 0x4c, 0x59, 0x00, 0x00,
  0x14, 0x59, 0x00, 0x00, 0x84, 0x58, 0x00, 0x00, 0x74, 0x57, 0x00, 0x00,
  0xe4, 0x52, 0x00, 0x00, 0xd4, 0x0a, 0x00, 0x00, 0xc4, 0x00, 0x00, 0x00,
  0xbc, 0x00, 0x00, 0x00, 0xb4, 0x00, 0x00, 0x00, 0xac, 0x00, 0x00, 0x00,
  0xa4, 0x00, 0x00, 0x00, 0x9c, 0x00, 0x00, 0x00, 0x94, 0x00, 0x00, 0x00,
  0x8c, 0x00, 0x00, 0x00, 0x6c, 0x00, 0x00, 0x00, 0x04, 0x00, 0x00, 0x00,
  0x4e, 0xa6, 0xff, 0xff, 0x04, 0x00, 0x00, 0x00, 0x58, 0x00, 0x00, 0x00,
  0x0c, 0x00, 0x00, 0x00, 0x08, 0x00, 0x0e, 0x00, 0x08, 0x00, 0x04, 0x00,
  0x08, 0x00, 0x00, 0x00, 0x10, 0x00, 0x00, 0x00, 0x28, 0x00, 0x00, 0x00,
  0x00, 0x00, 0x06, 0x00, 0x08, 0x00, 0x04, 0x00, 0x06, 0x00, 0x00, 0x00,
  0x04, 0x00, 0x00, 0x00, 0x01, 0x00, 0x00, 0x00, 0xea, 0x03, 0x00, 0x00,
  0x00, 0x00, 0x0a, 0x00, 0x10, 0x00, 0x0c, 0x00, 0x08, 0x00, 0x04, 0x00,
  0x0a, 0x00, 0x00, 0x00, 0x02, 0x00, 0x00, 0x00, 0x02, 0x00, 0x00, 0x00,
  0x04, 0x00, 0x00, 0x00, 0x06, 0x00, 0x00, 0x00, 0x32, 0x2e, 0x31, 0x30,
  0x2e, 0x30, 0x00, 0x00, 0xb2, 0xa6, 0xff, 0xff, 0x04, 0x00, 0x00, 0x00,
  0x10, 0x00, 0x00, 0x00, 0x32, 0x2e, 0x34, 0x2e, 0x30, 0x00, 0x00, 0x00,
  0x00, 0x00, 0x00, 0x00, 0x00, 0x00, 0x00, 0x00, 0x00, 0x9b, 0xff, 0xff,
  0x04, 0x9b, 0xff, 0xff, 0x08, 0x9b, 0xff, 0xff, 0x0c, 0x9b, 0xff, 0xff,
  0x10, 0x9b, 0xff, 0xff, 0x14, 0x9b, 0xff, 0xff, 0x18, 0x9b, 0xff, 0xff,
  0xea, 0xa6, 0xff, 0xff, 0x04, 0x00, 0x00, 0x00, 0x00, 0x0a, 0x00, 0x00,
  0x00, 0x00, 0xe0, 0x00, 0x00, 0x00, 0xcf, 0x00, 0x00, 0x2b, 0x27, 0xec,
  0x00, 0x00, 0x00, 0xb0, 0x00, 0x00, 0x00, 0xd3, 0x00, 0x00, 0x00, 0x00,
  0x00, 0x00, 0x00, 0x00, 0x00, 0x00, 0x00, 0x00, 0xc4, 0xdd, 0x00, 0xc4,
  0x13, 0x00, 0x00, 0x00, 0x00, 0x00, 0x00, 0x00, 0x00, 0x00, 0x00, 0x19,
  0x00, 0x00, 0x00, 0x00, 0x00, 0x00, 0x00, 0x00, 0x00, 0x12, 0x00, 0x00,
  0x00, 0x00, 0xe7, 0x00, 0x00, 0x00, 0x00, 0x19, 0x00, 0x00, 0x00, 0x00,
  0x00, 0xa3, 0x00, 0x00, 0x00, 0xe8, 0xd0, 0x0f, 0x00, 0x00, 0x00, 0x00,
  0x00, 0x00, 0x12, 0xb5, 0x00, 0xcd, 0x00, 0x00, 0x00, 0x00, 0x00, 0xef,
  0x00, 0x00, 0x00, 0x00, 0xd6, 0x00, 0x00, 0x00, 0x00, 0x00, 0x00, 0x00,
  0x00, 0x00, 0x00, 0xe0, 0x00, 0x0e, 0x00, 0x00, 0x00, 0x00, 0x00, 0x00,
  0x00, 0x00, 0x20, 0x00, 0x00, 0xef, 0x00, 0x00, 0x00, 0x00, 0x00, 0x00,
  0x2e, 0x00, 0x00, 0xdc, 0x00, 0x00, 0x00, 0x00, 0x00, 0x00, 0x00, 0x00,
  0x1b, 0x00, 0x00, 0x00, 0x14, 0x00, 0xe9, 0x00, 0x00, 0x00, 0x00, 0xc6,
  0x1e, 0x00, 0x00, 0x17, 0x00, 0x00, 0x00, 0xdb, 0x1f, 0x00, 0x00, 0x00,
  0x11, 0xcc, 0x00, 0x00, 0x00, 0x00, 0x00, 0x1f, 0xce, 0xf1, 0x00, 0x0e,
  0xdd, 0x00, 0x00, 0x16, 0x00, 0x00, 0x00, 0x2a, 0x00, 0x00, 0x00, 0x00,
  0xd3, 0x00, 0xec, 0x00, 0x97, 0x00, 0xdf, 0x00, 0x00, 0x00, 0x00, 0x00,
  0x00, 0x00, 0x00, 0x00, 0xd5, 0xbe, 0x00, 0x00, 0x00, 0x00, 0x00, 0x00,
  0x10, 0x00, 0x00, 0x00, 0x00, 0x00, 0x00, 0x00, 0x00, 0x00, 0xc0, 0x00,
  0x00, 0x00, 0x1c, 0x00, 0x00, 0x00, 0x00, 0xb9, 0xd1, 0x00, 0x15, 0x00,
  0x00, 0x10, 0x00, 0x00, 0x00, 0x00, 0xd0, 0x00, 0x00, 0x00, 0x00, 0xb7,
  0x00, 0x1b, 0x00, 0x00, 0x00, 0x00, 0x00, 0x16, 0x00, 0x00, 0x00, 0x00,
  0x00, 0x00, 0x00, 0xb7, 0x00, 0x00, 0x00, 0x00, 0x00, 0xe0, 0x00, 0xdb,
  0x00, 0x00, 0x00, 0xee, 0xe5, 0x00, 0x00, 0xed, 0x1a, 0x00, 0x00, 0x00,
  0xcc, 0x00, 0x00, 0x00, 0x00, 0xb9, 0x00, 0x00, 0x87, 0x00, 0x00, 0x00,
  0x00, 0x1b, 0x00, 0x00, 0x00, 0x00, 0x00, 0x00, 0x10, 0x00, 0xb2, 0xc3,
  0x12, 0xd0, 0x00, 0x00, 0x00, 0x00, 0xd6, 0x00, 0x00, 0xda, 0x00, 0x00,
  0xe0, 0x30, 0x00, 0x00, 0x1d, 0x00, 0x00, 0x00, 0xc2, 0x00, 0x27, 0x00,
  0x00, 0xd1, 0x00, 0x00, 0x00, 0xd8, 0x1f, 0x00, 0x14, 0x00, 0x00, 0x00,
  0x00, 0x00, 0x00, 0x00, 0x8d, 0x00, 0x00, 0xd2, 0x00, 0xa1, 0x14, 0x00,
  0x00, 0x00, 0x26, 0xe4, 0x00, 0x00, 0xb0, 0x00, 0xce, 0xbb, 0xe0, 0x00,
  0xde, 0x00, 0xf3, 0x00, 0x00, 0x00, 0x00, 0x00, 0x00, 0x1c, 0xdb, 0x00,
  0x00, 0x00, 0x00, 0x00, 0xd3, 0x00, 0x00, 0x00, 0x00, 0x14, 0x00, 0x12,
  0x00, 0x00, 0xd1, 0x00, 0x00, 0x00, 0x00, 0x00, 0xb6, 0x00, 0x00, 0x00,
  0x00, 0x00, 0x00, 0x00, 0x13, 0x00, 0xa1, 0x2d, 0xcd, 0x00, 0x16, 0x00,
  0x00, 0x00, 0x1b, 0xe4, 0xc7, 0x00, 0x00, 0x00, 0x00, 0x00, 0x00, 0x00,
  0x1c, 0x00, 0xcb, 0x00, 0x00, 0x00, 0xcd, 0x00, 0xa4, 0x00, 0xbd, 0x00,
  0x00, 0x00, 0x00, 0x00, 0x00, 0x11, 0x15, 0x00, 0x00, 0x00, 0x00, 0xa9,
  0x00, 0xce, 0x00, 0x00, 0x00, 0x00, 0x1f, 0x00, 0x1e, 0x00, 0xea, 0x00,
  0x00, 0x00, 0x00, 0xea, 0x00, 0x00, 0x00, 0x00, 0x00, 0x00, 0x00, 0x00,
  0xd7, 0x00, 0x00, 0xe1, 0x1d, 0x00, 0x00, 0x00, 0x00, 0xc9, 0x00, 0xe7,
  0x2c, 0x15, 0x00, 0x00, 0x00, 0x00, 0x00, 0x1d, 0x00, 0x00, 0x00, 0x00,
  0x00, 0x12, 0x15, 0x00, 0x00, 0x00, 0xeb, 0x00, 0x00, 0x00, 0x00, 0x00,
  0x00, 0xe0, 0x00, 0x00, 0xea, 0xee, 0x00, 0x00, 0x00, 0xc1, 0x00, 0x1b,
  0x00, 0x00, 0x00, 0x13, 0xca, 0x00, 0x00, 0x00, 0x00, 0x00, 0x00, 0x00,
  0x00, 0x00, 0x00, 0xd7, 0x00, 0x00, 0xeb, 0x00, 0x00, 0x00, 0xd8, 0x00,
  0x00, 0x00, 0x00, 0x00, 0x00, 0x00, 0x00, 0xe3, 0x00, 0x00, 0x00, 0xcc,
  0x24, 0x00, 0x00, 0x00, 0x00, 0x00, 0x00, 0x00, 0x00, 0x00, 0x00, 0xdd,
  0x17, 0xee, 0x00, 0x00, 0x00, 0x00, 0x00, 0x00, 0x00, 0x00, 0x00, 0x00,
  0x00, 0x00, 0x00, 0x00, 0x00, 0x00, 0x00, 0x00, 0x00, 0x00, 0x00, 0x00,
  0x00, 0x00, 0x00, 0x00, 0x00, 0x00, 0x00, 0x00, 0x00, 0x00, 0x00, 0x00,
  0x00, 0xda, 0x00, 0x00, 0x00, 0x00, 0x00, 0x00, 0x00, 0x00, 0xe4, 0xad,
  0x00, 0x00, 0x00, 0x00, 0x00, 0x00, 0x00, 0x00, 0x11, 0x00, 0x00, 0x00,
  0x00, 0x00, 0x00, 0x00, 0x00, 0x00, 0x00, 0xde, 0x24, 0x00, 0x00, 0x00,
  0x00, 0x29, 0xe7, 0xea, 0x00, 0x00, 0x00, 0x00, 0xd7, 0xeb, 0x00, 0x00,
  0x00, 0x00, 0x00, 0x00, 0x00, 0x00, 0x21, 0x00, 0xd4, 0x00, 0x00, 0x00,
  0x00, 0x00, 0x00, 0x00, 0x00, 0x00, 0x00, 0xb0, 0x00, 0x2a, 0x00, 0x00,
  0x00, 0x00, 0x00, 0x00, 0x00, 0x00, 0xda, 0x00, 0x00, 0xd6, 0x19, 0x00,
  0xdb, 0x00, 0x00, 0x00, 0x00, 0x00, 0x00, 0x00, 0xd3, 0x00, 0x00, 0xd8,
  0x1c, 0x00, 0x00, 0x00, 0x00, 0xee, 0x00, 0x00, 0x21, 0x00, 0x00, 0x1e,
  0x1b, 0x00, 0x00, 0x00, 0x00, 0x00, 0xe1, 0x00, 0x00, 0xdd, 0x00, 0xf3,
  0xe3, 0x00, 0x00, 0x00, 0xed, 0x00, 0x00, 0x00, 0x00, 0x2e, 0x00, 0xd0,
  0x20, 0x00, 0x00, 0xd3, 0x00, 0x00, 0x22, 0x00, 0x00, 0x14, 0x00, 0x00,
  0x00, 0xd5, 0x16, 0x23, 0x00, 0x00, 0x1d, 0xed, 0x00, 0x00, 0x1a, 0x00,
  0xc9, 0x00, 0xf0, 0x00, 0x00, 0xd1, 0x00, 0x1a, 0xcf, 0x00, 0x00, 0x00,
  0x00, 0x00, 0xc4, 0x18, 0x00, 0x00, 0x00, 0x00, 0xbf, 0x00, 0x00, 0x00,
  0x00, 0x00, 0xef, 0x1c, 0x00, 0x00, 0x00, 0xdb, 0x00, 0x00, 0xe2, 0x00,
  0xc4, 0x00, 0x00, 0x00, 0x00, 0x00, 0x00, 0x0f, 0x00, 0x00, 0x00, 0x94,
  0xeb, 0x00, 0x00, 0xae, 0x28, 0x00, 0x00, 0x00, 0xea, 0xed, 0x00, 0xc7,
  0x00, 0x00, 0x00, 0x00, 0x00, 0x00, 0x00, 0xf0, 0x00, 0x00, 0xcf, 0x00,
  0x00, 0x23, 0x00, 0x00, 0x00, 0x00, 0xe7, 0x00, 0x00, 0x00, 0x00, 0xdc,
  0x00, 0x00, 0xc0, 0x14, 0xe1, 0xe5, 0x00, 0x00, 0xec, 0x00, 0x00, 0x00,
  0x00, 0x00, 0x00, 0x00, 0x00, 0x00, 0x00, 0x00, 0x00, 0x00, 0x00, 0x00,
  0xe6, 0xeb, 0x00, 0x00, 0x00, 0x00, 0x00, 0x00, 0x00, 0x00, 0x00, 0x00,
  0x00, 0xe4, 0x00, 0x00, 0x14, 0xe2, 0x00, 0xe6, 0xdf, 0x00, 0x27, 0x00,
  0x00, 0xcb, 0x00, 0x00, 0xb9, 0x00, 0x00, 0x00, 0x00, 0xd3, 0xe1, 0x00,
  0x00, 0x00, 0x00, 0x00, 0x00, 0x00, 0x00, 0x00, 0x00, 0x00, 0x00, 0x00,
  0xbc, 0x32, 0x00, 0x00, 0x00, 0x00, 0x00, 0x00, 0x00, 0x00, 0x00, 0x00,
  0x00, 0x00, 0xea, 0x00, 0x00, 0x00, 0x00, 0x00, 0x00, 0x00, 0x00, 0xd4,
  0x00, 0x00, 0xea, 0x00, 0x00, 0x00, 0x00, 0x00, 0x00, 0x00, 0x10, 0x00,
  0x00, 0x00, 0x00, 0x00, 0x00, 0xd6, 0x00, 0x00, 0xe8, 0x00, 0x00, 0xec,
  0x00, 0x00, 0x00, 0x00, 0x00, 0x00, 0x00, 0x00, 0x00, 0xec, 0xe1, 0x00,
  0x00, 0x00, 0x00, 0x00, 0x00, 0x00, 0x00, 0x00, 0x00, 0x00, 0x00, 0x00,
  0x00, 0x00, 0xc1, 0x25, 0x00, 0x00, 0xe2, 0x26, 0x00, 0xd0, 0x00, 0x0f,
  0x15, 0x00, 0x00, 0x00, 0x2a, 0x00, 0x00, 0x00, 0x00, 0xea, 0x00, 0x10,
  0x00, 0x16, 0x00, 0x00, 0x00, 0x00, 0x00, 0x00, 0x00, 0x00, 0x00, 0x00,
  0x00, 0x00, 0x1b, 0x00, 0x00, 0x2f, 0x00, 0xb6, 0x1d, 0x00, 0x9c, 0x00,
  0x11, 0xe9, 0x00, 0x00, 0x00, 0x00, 0x00, 0x00, 0x00, 0xee, 0x00, 0x28,
  0x00, 0xa2, 0x00, 0x00, 0x00, 0x1d, 0x00, 0x2e, 0x1a, 0x00, 0x00, 0x00,
  0x00, 0x00, 0xe8, 0x00, 0x00, 0x00, 0x00, 0x00, 0xc7, 0x00, 0x00, 0x00,
  0x00, 0x00, 0x00, 0x00, 0x2c, 0x00, 0x00, 0x00, 0x00, 0x00, 0x00, 0x00,
  0x00, 0x30, 0x00, 0xce, 0x12, 0x00, 0xf1, 0x0f, 0xd5, 0x00, 0x00, 0x00,
  0x00, 0xbc, 0xac, 0x00, 0x00, 0xdb, 0x00, 0x00, 0x00, 0x00, 0x00, 0x90,
  0x00, 0x00, 0x00, 0x00, 0x00, 0x00, 0x12, 0xbf, 0x00, 0x00, 0x2c, 0x00,
  0x00, 0xe6, 0x2f, 0xd1, 0x00, 0xbe, 0x00, 0xe7, 0x00, 0x00, 0xd7, 0x00,
  0x00, 0x00, 0x00, 0x00, 0x00, 0x00, 0x00, 0x00, 0x00, 0x00, 0x00, 0x00,
  0x00, 0x00, 0xd1, 0x00, 0x00, 0x00, 0x00, 0x24, 0x00, 0x00, 0x00, 0x00,
  0x00, 0x00, 0x00, 0x00, 0x00, 0x18, 0x11, 0x00, 0x00, 0x00, 0x00, 0x00,
  0x00, 0x00, 0x00, 0x00, 0x00, 0x00, 0xcf, 0xd4, 0x00, 0x00, 0x00, 0x00,
  0x00, 0x00, 0x00, 0x00, 0x00, 0x00, 0x00, 0x00, 0x00, 0x00, 0x00, 0x00,
  0x00, 0x23, 0x00, 0x00, 0x00, 0x00, 0x00, 0x00, 0x00, 0x00, 0x00, 0x00,
  0x00, 0x00, 0x00, 0x00, 0x00, 0x00, 0xdc, 0x00, 0x00, 0x00, 0x23, 0x00,
  0x00, 0x00, 0x00, 0x00, 0x00, 0x00, 0x00, 0xed, 0x00, 0x00, 0x00, 0x00,
  0x00, 0x00, 0x00, 0x00, 0xee, 0x00, 0x00, 0x00, 0x20, 0xd4, 0x00, 0xc3,
  0x00, 0x16, 0xca, 0x00, 0x00, 0x00, 0x1a, 0xd3, 0x00, 0x00, 0x00, 0x00,
  0x00, 0x14, 0x00, 0x14, 0xcf, 0x00, 0xee, 0x00, 0x00, 0x92, 0x00, 0x00,
  0x00, 0x00, 0xea, 0x00, 0x00, 0xce, 0xe3, 0x00, 0x00, 0x00, 0x00, 0x00,
  0x00, 0x00, 0x00, 0x00, 0x00, 0xca, 0x00, 0xea, 0xf2, 0x00, 0x00, 0x00,
  0x00, 0x00, 0xf0, 0x00, 0x00, 0x00, 0x00, 0x00, 0x00, 0x00, 0x00, 0x00,
  0x00, 0x00, 0x00, 0xe4, 0x00, 0x00, 0x00, 0xd3, 0x00, 0x16, 0x16, 0x00,
  0x00, 0x00, 0x18, 0x00, 0x00, 0x00, 0x00, 0xce, 0x00, 0xb3, 0x00, 0x00,
  0x00, 0x00, 0x00, 0x00, 0x00, 0x00, 0x00, 0x00, 0x00, 0xf2, 0x00, 0x00,
  0xc5, 0x23, 0x00, 0xda, 0xe1, 0x00, 0x00, 0xb8, 0x00, 0x00, 0xc2, 0x00,
  0x00, 0xd5, 0x00, 0x26, 0x00, 0x00, 0x00, 0x1f, 0x00, 0x00, 0x00, 0x00,
  0x00, 0x00, 0x00, 0x00, 0xc7, 0x00, 0xea, 0xd2, 0x00, 0x23, 0xca, 0x00,
  0x00, 0x00, 0xe3, 0xe4, 0xe7, 0x00, 0x00, 0xbf, 0xd4, 0x23, 0x15, 0x1e,
  0x11, 0x3f, 0x00, 0x00, 0x00, 0x00, 0x00, 0x00, 0xe1, 0x00, 0x00, 0x00,
  0xb3, 0x00, 0x00, 0xf1, 0x00, 0x00, 0x00, 0x00, 0x00, 0xcf, 0x00, 0x00,
  0xe2, 0x00, 0xee, 0x00, 0x00, 0x00, 0x00, 0x00, 0x00, 0x00, 0x00, 0x00,
  0x00, 0x00, 0xe4, 0x00, 0x00, 0xe6, 0x19, 0x00, 0x00, 0x31, 0x00, 0x1c,
  0x00, 0x00, 0xc9, 0x00, 0x00, 0x00, 0x00, 0x00, 0xeb, 0x00, 0x00, 0x00,
  0x00, 0x00, 0x00, 0x00, 0x19, 0x00, 0x00, 0x00, 0x00, 0x29, 0x00, 0x00,
  0x00, 0x00, 0x00, 0x00, 0xd7, 0x00, 0x00, 0x00, 0x00, 0x00, 0x18, 0x00,
  0x00, 0x00, 0x00, 0x00, 0x00, 0x00, 0x00, 0xdd, 0x00, 0x00, 0x00, 0x00,
  0x00, 0x00, 0x00, 0x00, 0x00, 0x00, 0x00, 0x00, 0x00, 0x00, 0x00, 0x00,
  0x00, 0x00, 0x11, 0x00, 0x00, 0x00, 0x15, 0x00, 0x00, 0x00, 0xef, 0x28,
  0x00, 0x00, 0x00, 0x1d, 0x00, 0x00, 0x00, 0x00, 0x13, 0x00, 0x00, 0x00,
  0x00, 0x00, 0xee, 0x00, 0x00, 0x00, 0x00, 0x00, 0x00, 0x16, 0x00, 0xef,
  0x00, 0x00, 0x00, 0x00, 0x00, 0x00, 0xb6, 0x00, 0x00, 0x15, 0x00, 0x00,
  0x00, 0x4c, 0x00, 0xdd, 0x00, 0x00, 0xbe, 0x00, 0x00, 0xc2, 0x20, 0x00,
  0x00, 0x00, 0xce, 0xea, 0x00, 0x91, 0x00, 0x1e, 0x00, 0x00, 0x00, 0xc4,
  0x22, 0x00, 0x00, 0x00, 0x14, 0xc4, 0x00, 0xd6, 0x00, 0x00, 0xb9, 0x00,
  0xce, 0x00, 0xba, 0x00, 0x00, 0x00, 0x00, 0x00, 0x00, 0x00, 0x00, 0x00,
  0x26, 0x00, 0xa4, 0x00, 0x00, 0x00, 0xde, 0x00, 0x00, 0x00, 0x00, 0x00,
  0x13, 0x00, 0xdd, 0x25, 0x00, 0x00, 0x00, 0x00, 0x19, 0x00, 0xeb, 0x00,
  0xe9, 0x00, 0x00, 0x11, 0x00, 0x00, 0x00, 0xd5, 0x00, 0x00, 0xea, 0x00,
  0x00, 0x00, 0x00, 0x00, 0x00, 0x00, 0x00, 0x00, 0x00, 0x00, 0x00, 0xdc,
  0x00, 0x21, 0x1e, 0x00, 0x21, 0x00, 0x00, 0x00, 0xbe, 0xe5, 0x00, 0x25,
  0x00, 0x00, 0x00, 0x00, 0x00, 0x20, 0x00, 0xa8, 0x00, 0x00, 0xc1, 0x00,
  0x29, 0x00, 0x00, 0xdd, 0x00, 0x00, 0x00, 0x00, 0xb5, 0x00, 0x00, 0x00,
  0x00, 0x00, 0x00, 0x00, 0x1a, 0x00, 0xcd, 0x00, 0x00, 0xec, 0x00, 0x99,
  0x1d, 0x00, 0x00, 0x00, 0x00, 0x00, 0x19, 0x00, 0x00, 0x00, 0x1b, 0x00,
  0x00, 0x00, 0x00, 0x00, 0x00, 0x00, 0x00, 0x00, 0x00, 0x00, 0x00, 0x00,
  0x00, 0xcc, 0x00, 0x00, 0x00, 0xec, 0x00, 0x1f, 0x00, 0x00, 0x81, 0x00,
  0xea, 0x13, 0x00, 0xe5, 0x00, 0x27, 0x18, 0x00, 0xc0, 0x00, 0x00, 0xdf,
  0x00, 0x00, 0x00, 0x00, 0x00, 0x00, 0x00, 0x00, 0x00, 0x00, 0xc3, 0x00,
  0x00, 0xaf, 0x00, 0x00, 0x00, 0xee, 0x20, 0x00, 0x00, 0x19, 0x00, 0x00,
  0x00, 0x42, 0x00, 0x23, 0x00, 0x00, 0x00, 0x00, 0x00, 0x00, 0x00, 0xe9,
  0x00, 0x00, 0x00, 0x00, 0x00, 0x00, 0x3a, 0x00, 0x00, 0xb9, 0x00, 0x00,
  0xd7, 0x00, 0x00, 0xcd, 0xe0, 0x11, 0x26, 0xec, 0x00, 0x00, 0x00, 0x00,
  0x00, 0x00, 0x00, 0x00, 0x00, 0x00, 0x00, 0x1b, 0x00, 0x00, 0x00, 0x00,
  0x00, 0x00, 0x00, 0x18, 0x00, 0x00, 0x13, 0x00, 0x00, 0x1e, 0x00, 0x00,
  0x00, 0x00, 0x00, 0x00, 0x00, 0x00, 0x00, 0x00, 0x00, 0x00, 0x00, 0x00,
  0x00, 0x00, 0x1b, 0x00, 0x00, 0x10, 0x00, 0xd8, 0x1c, 0x00, 0x00, 0x00,
  0x00, 0x00, 0x00, 0x00, 0xda, 0x00, 0x00, 0x00, 0x00, 0x00, 0x00, 0x00,
  0x00, 0x00, 0xdf, 0x0e, 0x19, 0x00, 0x00, 0x00, 0x00, 0x00, 0x00, 0xee,
  0x00, 0x00, 0x00, 0x00, 0x00, 0x00, 0x00, 0x00, 0x00, 0x00, 0x1c, 0x00,
  0x13, 0x15, 0x00, 0x00, 0x00, 0x20, 0x00, 0x00, 0x00, 0xdd, 0x00, 0x00,
  0x13, 0x00, 0x00, 0x00, 0x00, 0x00, 0x00, 0x00, 0x12, 0x00, 0x00, 0xc4,
  0x00, 0x00, 0x00, 0x17, 0x00, 0x00, 0x00, 0x00, 0x00, 0xcf, 0x00, 0x00,
  0x00, 0xb8, 0x00, 0x00, 0x00, 0x00, 0xe5, 0x1a, 0x00, 0x00, 0x00, 0x00,
  0x00, 0x1f, 0xc7, 0x00, 0x00, 0x00, 0x00, 0x14, 0xbf, 0xe6, 0x00, 0x4e,
  0x00, 0x00, 0x00, 0x00, 0x00, 0xf0, 0xd0, 0x00, 0xdf, 0x00, 0x00, 0x00,
  0x00, 0x00, 0x00, 0xd6, 0xc7, 0x00, 0xc7, 0x00, 0x00, 0x00, 0x00, 0x00,
  0x00, 0x19, 0xd5, 0x00, 0x00, 0x20, 0x00, 0x00, 0xd3, 0x00, 0xab, 0xd7,
  0x00, 0x00, 0x00, 0x00, 0xeb, 0x00, 0x00, 0x00, 0x00, 0x00, 0x00, 0x00,
  0x00, 0xe5, 0x00, 0x00, 0x00, 0x00, 0x00, 0x00, 0x00, 0xd8, 0x00, 0x00,
  0xf0, 0x00, 0x00, 0x00, 0x00, 0x00, 0x00, 0x00, 0x00, 0x00, 0x00, 0x00,
  0xec, 0x00, 0xbc, 0x00, 0x00, 0xe6, 0x00, 0x00, 0x00, 0xd3, 0x00, 0x00,
  0x00, 0x00, 0x00, 0x00, 0xcb, 0x00, 0xd7, 0x0f, 0xe2, 0xb7, 0x00, 0x00,
  0x00, 0x13, 0xd1, 0x00, 0x00, 0x00, 0xc3, 0x00, 0x00, 0x00, 0x00, 0x15,
  0x00, 0x00, 0x1f, 0x00, 0x00, 0xe0, 0x00, 0x00, 0x00, 0xc0, 0x00, 0xdd,
  0x00, 0x00, 0xee, 0x00, 0x00, 0x00, 0xd3, 0x00, 0xde, 0x00, 0x00, 0x00,
  0x00, 0xe8, 0x00, 0x00, 0x00, 0x00, 0x00, 0xe3, 0x00, 0x23, 0x00, 0x00,
  0x00, 0x00, 0x24, 0x00, 0x00, 0xe3, 0x00, 0x00, 0x00, 0xd8, 0x00, 0x00,
  0x15, 0x00, 0x00, 0x00, 0x00, 0x00, 0x00, 0x00, 0x00, 0xdf, 0x00, 0x00,
  0xe0, 0x00, 0x00, 0x00, 0x00, 0x00, 0x00, 0x00, 0x00, 0x1f, 0x00, 0x00,
  0x00, 0x00, 0x21, 0x00, 0x00, 0x00, 0x00, 0x00, 0x00, 0x00, 0x00, 0x00,
  0x00, 0x00, 0x00, 0x00, 0xcb, 0x00, 0x00, 0x00, 0x0f, 0x00, 0x00, 0xe1,
  0x00, 0x00, 0x00, 0x00, 0x00, 0x00, 0x00, 0x00, 0xa0, 0x00, 0x00, 0x00,
  0x00, 0x00, 0x00, 0xe1, 0x00, 0xe8, 0x00, 0xef, 0x00, 0xe5, 0xe8, 0x00,
  0x00, 0x00, 0x00, 0x00, 0x26, 0x00, 0xa3, 0x00, 0x00, 0x00, 0x00, 0x21,
  0x00, 0x00, 0x00, 0x00, 0xbb, 0x00, 0x00, 0xc5, 0xe3, 0x00, 0x00, 0x9c,
  0x00, 0xe7, 0x00, 0xb2, 0x00, 0x00, 0x00, 0x00, 0x00, 0xc6, 0x00, 0x00,
  0x00, 0x00, 0x00, 0x00, 0x00, 0x11, 0x00, 0xea, 0x12, 0x00, 0x00, 0x00,
  0x00, 0x00, 0x00, 0x00, 0xc9, 0x00, 0x00, 0x00, 0x00, 0x00, 0x00, 0x00,
  0x00, 0xe7, 0x00, 0x00, 0x12, 0xd3, 0x00, 0x00, 0x00, 0x00, 0x00, 0x00,
  0x00, 0xaa, 0x00, 0xee, 0xc3, 0x00, 0x00, 0x00, 0x00, 0x00, 0x00, 0x00,
  0x00, 0x00, 0x00, 0x21, 0x00, 0xe1, 0x00, 0xee, 0x00, 0xad, 0xd0, 0x00,
  0x00, 0xdc, 0x00, 0x00, 0x00, 0x00, 0x00, 0x00, 0xca, 0x2d, 0x00, 0x00,
  0x00, 0x00, 0x00, 0x00, 0x00, 0x00, 0x00, 0x28, 0xf0, 0x00, 0x00, 0xd1,
  0x00, 0x00, 0x2d, 0x00, 0x00, 0xba, 0x00, 0x10, 0xe5, 0x00, 0x00, 0x00,
  0x00, 0x00, 0xba, 0xe7, 0x00, 0x00, 0x16, 0xca, 0x00, 0x00, 0xc7, 0x00,
  0x00, 0x00, 0x00, 0xcb, 0x00, 0x00, 0xec, 0xdc, 0x10, 0xef, 0x00, 0x00,
  0x00, 0x00, 0x00, 0x00, 0x00, 0x00, 0x00, 0x00, 0x00, 0xe8, 0x00, 0x00,
  0x00, 0x22, 0x00, 0x00, 0x18, 0x00, 0x00, 0x00, 0x00, 0xef, 0x15, 0x00,
  0x00, 0xdb, 0xd9, 0x00, 0x00, 0xc6, 0x00, 0x00, 0xc6, 0x00, 0x00, 0x00,
  0x00, 0x00, 0x00, 0x00, 0x00, 0x00, 0x00, 0x00, 0x00, 0x00, 0xed, 0x00,
  0xe6, 0x00, 0x00, 0xb7, 0x00, 0x00, 0x00, 0x00, 0x00, 0x00, 0x00, 0x00,
  0x00, 0x00, 0x00, 0x00, 0xb1, 0xc8, 0x00, 0x00, 0xec, 0x00, 0x00, 0x00,
  0x00, 0xe4, 0x00, 0x00, 0x00, 0x00, 0xda, 0x00, 0xcc, 0x00, 0xc2, 0x00,
  0x00, 0x00, 0x00, 0xe4, 0x00, 0x00, 0x00, 0x00, 0x00, 0x00, 0x00, 0x00,
  0x00, 0xc6, 0x00, 0x00, 0x00, 0x00, 0x10, 0xe0, 0x00, 0x00, 0x00, 0x00,
  0x00, 0x00, 0x00, 0x26, 0x00, 0xdd, 0x00, 0x00, 0x00, 0xe8, 0x00, 0x00,
  0x1b, 0x00, 0x0f, 0x00, 0x00, 0x00, 0x00, 0xbb, 0x00, 0xea, 0xae, 0x00,
  0x00, 0x00, 0xbe, 0x00, 0x00, 0x00, 0x00, 0x00, 0x00, 0x00, 0x00, 0x00,
  0x00, 0xc3, 0x00, 0x00, 0x16, 0x00, 0x00, 0x00, 0x00, 0x23, 0x00, 0x00,
  0x0e, 0x00, 0xc1, 0x00, 0x00, 0x00, 0x00, 0x00, 0x00, 0x00, 0x00, 0x00,
  0x00, 0x00, 0x00, 0x00, 0x00, 0xe5, 0x00, 0x00, 0x00, 0x00, 0x00, 0x00,
  0xc0, 0x00, 0x00, 0xca, 0x00, 0x00, 0x00, 0x00, 0x00, 0xc7, 0x00, 0x00,
  0x00, 0x00, 0x00, 0x00, 0x23, 0x00, 0x00, 0xde, 0x00, 0x00, 0x00, 0x00,
  0x18, 0x00, 0x00, 0x00, 0x00, 0xcc, 0x00, 0x00, 0x1f, 0x00, 0x00, 0x00,
  0xee, 0x00, 0xe5, 0x00, 0x00, 0xc4, 0x00, 0xaf, 0x00, 0x00, 0xe8, 0x00,
  0x00, 0x00, 0x00, 0x00, 0xf6, 0xb0, 0xff, 0xff, 0x04, 0x00, 0x00, 0x00,
  0x00, 0x48, 0x00, 0x00, 0xad, 0x00, 0x00, 0x00, 0x00, 0x00, 0x00, 0x00,
  0x22, 0x26, 0x00, 0x00, 0xed, 0x00, 0x1d, 0x00, 0x00, 0x00, 0x25, 0x00,
  0x00, 0x3d, 0x00, 0xa7, 0x00, 0x00, 0x00, 0x00, 0x00, 0x00, 0x4e, 0x00,
  0x00, 0x00, 0xe3, 0xcc, 0xd6, 0xcb, 0x3d, 0xf3, 0x00, 0x13, 0x00, 0x00,
  0x00, 0x00, 0x00, 0x00, 0x00, 0x00, 0x00, 0x00, 0x00, 0x00, 0x00, 0x00,
  0x00, 0x00, 0x00, 0x00, 0xe8, 0xdd, 0x00, 0x00, 0x00, 0x00, 0x00, 0x00,
  0x00, 0x00, 0xe1, 0x00, 0x81, 0xeb, 0x00, 0xeb, 0x00, 0x00, 0x00, 0x00,
  0x00, 0x00, 0x00, 0x00, 0x00, 0x00, 0x00, 0x00, 0xe7, 0xcd, 0x00, 0x00,
  0xd8, 0x00, 0x00, 0x00, 0x00, 0x00, 0x00, 0x00, 0x00, 0x00, 0x00, 0x00,
  0x00, 0x00, 0x00, 0x00, 0x00, 0x00, 0x00, 0x00, 0x00, 0x00, 0x00, 0x00,
  0x1a, 0x00, 0x00, 0x00, 0x00, 0x00, 0x00, 0x00, 0x00, 0xc3, 0x00, 0x00,
  0xe2, 0x00, 0xeb, 0xc9, 0x00, 0x00, 0x00, 0x00, 0x00, 0x00, 0xe7, 0x00,
  0x00, 0x00, 0x00, 0x00, 0x00, 0x00, 0x00, 0x00, 0x00, 0x00, 0x00, 0x00,
  0x00, 0x00, 0x00, 0xe2, 0x00, 0xbe, 0x00, 0xd9, 0x00, 0x00, 0xe9, 0x22,
  0x00, 0x00, 0x00, 0x00, 0x00, 0x00, 0x13, 0xeb, 0xf1, 0xcf, 0x00, 0x00,
  0x00, 0x00, 0x00, 0x00, 0xf2, 0x00, 0x17, 0x00, 0x00, 0x00, 0x00, 0x00,
  0x00, 0x00, 0x00, 0x00, 0x20, 0x00, 0x00, 0x15, 0x00, 0x00, 0x00, 0x00,
  0x2d, 0x00, 0x00, 0x00, 0x00, 0x00, 0x00, 0x00, 0x00, 0x00, 0x00, 0x00,
  0x00, 0x00, 0x00, 0x00, 0x00, 0xba, 0xda, 0x00, 0x00, 0x00, 0x00, 0xd0,
  0x1b, 0x00, 0x00, 0x23, 0x00, 0x00, 0xc3, 0x00, 0x00, 0x00, 0x00, 0x00,
  0x00, 0x00, 0x00, 0x00, 0x00, 0x00, 0x00, 0xed, 0x00, 0xf0, 0x00, 0x00,
  0x00, 0x00, 0x2b, 0x00, 0xe9, 0xb9, 0x00, 0xb3, 0x0d, 0x00, 0x00, 0x00,
  0x00, 0x00, 0x00, 0x00, 0x2d, 0x00, 0x14, 0x00, 0x00, 0x00, 0x00, 0x00,
  0x00, 0x19, 0x00, 0x00, 0x00, 0x20, 0x00, 0x00, 0x1e, 0xca, 0xee, 0x11,
  0xef, 0x00, 0x00, 0xc6, 0x00, 0x00, 0x00, 0x00, 0x00, 0x00, 0x00, 0x00,
  0x00, 0x00, 0x00, 0x00, 0x00, 0xd2, 0x00, 0x00, 0x00, 0x00, 0x00, 0xb4,
  0xcf, 0x00, 0x00, 0x00, 0xd4, 0x00, 0x24, 0x00, 0x00, 0x00, 0x00, 0x00,
  0x00, 0x00, 0x00, 0x00, 0x00, 0x00, 0x00, 0x00, 0x3c, 0x00, 0x00, 0x00,
  0x00, 0x00, 0x00, 0x00, 0xd5, 0x00, 0x00, 0x00, 0x27, 0x00, 0x00, 0x00,
  0x00, 0x00, 0x00, 0x00, 0x00, 0x00, 0x00, 0x00, 0xed, 0x00, 0x00, 0x00,
  0x00, 0x00, 0xee, 0x00, 0x00, 0x00, 0xc9, 0x00, 0x00, 0x00, 0x00, 0x00,
  0xe7, 0x00, 0x00, 0x00, 0x00, 0x15, 0xe8, 0x00, 0x00, 0x00, 0x00, 0xf4,
  0x00, 0x00, 0x1d, 0x00, 0x14, 0x00, 0x00, 0x00, 0x00, 0x00, 0x00, 0x00,
  0xe9, 0x00, 0x00, 0xca, 0x10, 0x00, 0x00, 0x00, 0x00, 0x00, 0x00, 0x00,
  0x00, 0x20, 0x00, 0x00, 0x00, 0x13, 0x00, 0x00, 0xe2, 0x00, 0x00, 0x00,
  0x00, 0x00, 0x00, 0x00, 0x00, 0x00, 0x00, 0x00, 0xeb, 0x00, 0xc4, 0x00,
  0x00, 0x00, 0x00, 0x00, 0x00, 0x00, 0x00, 0x00, 0x00, 0x00, 0x00, 0x00,
  0x00, 0x00, 0x00, 0x00, 0x00, 0x00, 0x00, 0x00, 0x00, 0x0f, 0xed, 0x00,
  0x00, 0x00, 0x00, 0x00, 0x00, 0x00, 0x00, 0xe4, 0x00, 0x00, 0x00, 0x00,
  0x00, 0x00, 0x00, 0x00, 0xe8, 0x1c, 0x00, 0x17, 0x00, 0x00, 0x00, 0x00,
  0x00, 0x1b, 0x00, 0x1d, 0xf0, 0xe4, 0x00, 0x00, 0x00, 0x00, 0x00, 0x00,
  0x00, 0x00, 0x00, 0x00, 0x11, 0x11, 0xef, 0x00, 0x00, 0x00, 0x00, 0x0e,
  0x00, 0x32, 0x00, 0xe5, 0x00, 0x00, 0x00, 0x25, 0x00, 0x10, 0x00, 0x28,
  0x00, 0x00, 0x00, 0xb8, 0x00, 0xe0, 0x00, 0x00, 0x00, 0x35, 0x00, 0xdb,
  0x00, 0x29, 0x00, 0x00, 0x17, 0x00, 0x00, 0x2d, 0x00, 0x00, 0x00, 0xc4,
  0x00, 0x3a, 0x00, 0x00, 0x00, 0x2e, 0x00, 0x1e, 0x00, 0x00, 0x00, 0x00,
  0x11, 0x00, 0x00, 0x00, 0x00, 0x00, 0xbe, 0x00, 0x00, 0x23, 0x00, 0xc2,
  0x00, 0xdd, 0x00, 0x2c, 0xe9, 0x00, 0x00, 0xdf, 0xdf, 0x00, 0x00, 0x81,
  0x00, 0x32, 0x00, 0x30, 0xdb, 0xe5, 0xc3, 0x00, 0x00, 0xbc, 0x00, 0xc1,
  0x00, 0x00, 0xcb, 0xbe, 0x00, 0x00, 0x00, 0x00, 0x00, 0x00, 0x00, 0x00,
  0x00, 0x00, 0xc5, 0x00, 0xdc, 0x25, 0x00, 0x00, 0xd5, 0x00, 0x00, 0x00,
  0xcf, 0x00, 0xe7, 0x00, 0xca, 0xdd, 0x00, 0x00, 0xb7, 0x00, 0x00, 0xd0,
  0x00, 0x00, 0x00, 0x00, 0x23, 0x00, 0x00, 0x00, 0x00, 0xc9, 0x00, 0x81,
  0x00, 0x00, 0x00, 0x00, 0x00, 0x00, 0x00, 0x00, 0x00, 0x00, 0x00, 0x00,
  0x00, 0x00, 0x00, 0x00, 0x00, 0x00, 0x00, 0x00, 0x00, 0x14, 0x00, 0x00,
  0x10, 0xb3, 0x00, 0x00, 0x00, 0x00, 0x00, 0x00, 0x00, 0x00, 0x00, 0x00,
  0x16, 0x15, 0x00, 0x00, 0xeb, 0x00, 0x20, 0x00, 0x00, 0x00, 0x00, 0x00,
  0x00, 0x17, 0x00, 0x00, 0x1e, 0x18, 0x00, 0x16, 0x13, 0x00, 0x00, 0x13,
  0x00, 0x00, 0xe2, 0x00, 0x00, 0x00, 0x40, 0x00, 0x13, 0x00, 0x00, 0x00,
  0xe8, 0xed, 0x00, 0xda, 0x00, 0x00, 0x1c, 0x00, 0x16, 0x00, 0x00, 0x1d,
  0x00, 0x00, 0x00, 0x00, 0x1a, 0x1f, 0x00, 0x00, 0x00, 0x00, 0x00, 0x00,
  0x00, 0x00, 0x00, 0x14, 0x00, 0x8f, 0x30, 0xa5, 0x00, 0xe0, 0x00, 0x00,
  0x00, 0x00, 0x00, 0x00, 0xa3, 0x00, 0x00, 0x00, 0x00, 0x00, 0xde, 0x00,
  0x2f, 0x00, 0x00, 0x00, 0x00, 0x00, 0x00, 0xa8, 0xe0, 0x00, 0x00, 0x00,
  0x00, 0x00, 0x00, 0x00, 0x00, 0x00, 0x00, 0x4e, 0x00, 0x23, 0x00, 0x00,
  0x00, 0xcb, 0x00, 0x00, 0x00, 0x00, 0xc4, 0x00, 0x18, 0x00, 0x00, 0x00,
  0x00, 0x00, 0x00, 0x16, 0x00, 0x00, 0x00, 0x00, 0x00, 0xd4, 0xe0, 0x00,
  0x1c, 0x00, 0x00, 0x21, 0x15, 0x00, 0x00, 0x00, 0x00, 0x00, 0x00, 0x00,
  0x00, 0xde, 0xd6, 0x00, 0x00, 0x00, 0x00, 0x00, 0x00, 0x2f, 0x00, 0x00,
  0x00, 0x00, 0x00, 0x00, 0x00, 0x00, 0x3e, 0x00, 0x00, 0x00, 0xf0, 0x00,
  0xe2, 0x00, 0x2d, 0x00, 0xe0, 0x00, 0x00, 0x00, 0x00, 0x00, 0x00, 0xe6,
  0x00, 0xc8, 0x00, 0x00, 0x00, 0x00, 0x00, 0x11, 0x00, 0x00, 0x00, 0x00,
  0x00, 0x00, 0x00, 0x00, 0x00, 0x00, 0x27, 0x16, 0x00, 0x00, 0x00, 0x00,
  0x00, 0x00, 0xef, 0xf0, 0x10, 0x00, 0x00, 0x00, 0x00, 0x00, 0x00, 0x21,
  0x00, 0xea, 0x00, 0x00, 0x00, 0x00, 0x37, 0x00, 0x00, 0x00, 0x00, 0x2d,
  0x00, 0x00, 0x00, 0x00, 0x11, 0x00, 0x00, 0x00, 0x00, 0xc6, 0x00, 0x00,
  0x00, 0x00, 0x00, 0x00, 0x00, 0x00, 0x00, 0x00, 0x18, 0x00, 0x00, 0x00,
  0x00, 0x00, 0x00, 0x00, 0x00, 0xd2, 0x00, 0xef, 0xd6, 0x00, 0x00, 0x00,
  0x00, 0x00, 0x00, 0x00, 0x00, 0xec, 0xde, 0x1e, 0x00, 0x00, 0x00, 0x00,
  0x00, 0x3a, 0x00, 0x00, 0x00, 0x10, 0x00, 0x00, 0x00, 0xdc, 0x00, 0x00,
  0xee, 0x00, 0x3a, 0x00, 0x00, 0x00, 0x00, 0x00, 0x00, 0x00, 0x00, 0x00,
  0x00, 0x00, 0xee, 0x00, 0x00, 0x00, 0x00, 0x00, 0x00, 0x00, 0x00, 0x00,
  0x00, 0xda, 0x00, 0xc8, 0x00, 0x89, 0x00, 0x25, 0x00, 0x00, 0x00, 0x00,
  0x00, 0x00, 0x00, 0x00, 0x00, 0x25, 0x00, 0x00, 0xdd, 0x00, 0x00, 0x00,
  0x00, 0x00, 0x00, 0x10, 0x00, 0x00, 0x00, 0x00, 0x00, 0x00, 0x00, 0x00,
  0x00, 0x00, 0x37, 0x00, 0x00, 0x00, 0x00, 0x00, 0xc3, 0x00, 0x00, 0x00,
  0x00, 0x1c, 0x00, 0x00, 0x00, 0x00, 0x00, 0x00, 0x00, 0x26, 0x00, 0x00,
  0x00, 0x00, 0x3b, 0xde, 0x00, 0x00, 0x00, 0x00, 0x00, 0x00, 0x23, 0x14,
  0x00, 0x81, 0x00, 0x00, 0x00, 0x00, 0xbc, 0x00, 0x00, 0x00, 0x00, 0x00,
  0x00, 0x00, 0xf0, 0x00, 0x00, 0x00, 0x00, 0x00, 0x00, 0x00, 0x00, 0x00,
  0x00, 0x00, 0x00, 0x00, 0x00, 0x00, 0xbf, 0x00, 0x00, 0xdc, 0x00, 0x00,
  0x00, 0x1e, 0xee, 0x10, 0x00, 0x00, 0x00, 0x00, 0x00, 0x00, 0x00, 0xd1,
  0x00, 0x00, 0x00, 0x00, 0x00, 0x00, 0x00, 0x00, 0x00, 0x00, 0x00, 0x00,
  0x00, 0x00, 0x00, 0x00, 0x00, 0x00, 0x00, 0x00, 0x00, 0x00, 0x00, 0x3e,
  0x00, 0x42, 0x00, 0x00, 0x00, 0x00, 0xdf, 0x17, 0x0f, 0x00, 0x00, 0x00,
  0x00, 0x36, 0x0f, 0x00, 0x00, 0x00, 0x34, 0x00, 0x00, 0x00, 0x00, 0x00,
  0x00, 0x9f, 0x00, 0xe9, 0x00, 0x00, 0xd5, 0x00, 0xde, 0x00, 0x00, 0xed,
  0x00, 0x00, 0x00, 0x00, 0x00, 0x00, 0x00, 0xda, 0x00, 0x00, 0x00, 0x00,
  0x00, 0x00, 0x00, 0x00, 0xe9, 0x00, 0x00, 0x00, 0xd1, 0x00, 0x00, 0xef,
  0x1f, 0x00, 0x00, 0x00, 0x00, 0x00, 0x00, 0x00, 0x00, 0x00, 0xde, 0x00,
  0x00, 0xc1, 0x00, 0x00, 0x00, 0x14, 0x00, 0x00, 0x00, 0x00, 0xeb, 0x00,
  0x00, 0x00, 0x1b, 0x00, 0x00, 0xd3, 0x00, 0x00, 0x00, 0x00, 0x00, 0x00,
  0xd4, 0x00, 0x00, 0x00, 0x00, 0xef, 0xf3, 0x00, 0x00, 0x00, 0x00, 0x00,
  0x00, 0x00, 0x00, 0xcb, 0x00, 0xee, 0xea, 0x00, 0x00, 0x00, 0x00, 0x00,
  0x00, 0xef, 0x1f, 0x00, 0x29, 0x00, 0x15, 0x00, 0x34, 0x00, 0x2d, 0x39,
  0x00, 0x00, 0x00, 0xc6, 0x00, 0x00, 0x00, 0x00, 0xd5, 0x00, 0x00, 0x00,
  0x00, 0x00, 0x2b, 0x00, 0x00, 0x00, 0xe8, 0x00, 0x00, 0x00, 0x00, 0x00,
  0x00, 0x00, 0x15, 0x00, 0x28, 0x00, 0x00, 0x2a, 0x00, 0xf2, 0x00, 0xdc,
  0x00, 0x00, 0x00, 0x00, 0x00, 0x00, 0x00, 0x00, 0x00, 0x00, 0x17, 0x15,
  0x00, 0x15, 0x00, 0x19, 0x00, 0x00, 0xf0, 0x00, 0x00, 0xda, 0x00, 0x00,
  0x00, 0x00, 0x00, 0x00, 0x00, 0x00, 0xf0, 0x00, 0x00, 0x00, 0x00, 0x00,
  0xd3, 0x00, 0x00, 0x00, 0x00, 0x21, 0xe0, 0x28, 0x00, 0x00, 0x00, 0x00,
  0x00, 0x00, 0x14, 0x00, 0x00, 0x00, 0xe8, 0x00, 0x00, 0x00, 0x00, 0x00,
  0x00, 0xea, 0xbd, 0x00, 0x00, 0x00, 0x00, 0x00, 0x00, 0x00, 0x00, 0x00,
  0x26, 0x18, 0x00, 0x00, 0x00, 0x00, 0x00, 0x00, 0x00, 0x00, 0x00, 0x00,
  0x00, 0x00, 0x00, 0x00, 0x00, 0x00, 0x00, 0x00, 0x15, 0xc9, 0x00, 0x00,
  0x00, 0x00, 0x00, 0x11, 0x00, 0x00, 0x00, 0xdd, 0x00, 0x12, 0x00, 0x00,
  0x00, 0xc0, 0x00, 0x30, 0xdf, 0x00, 0x00, 0x00, 0x00, 0x00, 0x00, 0x54,
  0xe8, 0x00, 0x7f, 0x00, 0x00, 0x00, 0xe5, 0xe2, 0x13, 0xde, 0x00, 0x33,
  0xdc, 0x00, 0x00, 0x00, 0x00, 0x33, 0x14, 0x00, 0x00, 0x00, 0x00, 0x4c,
  0x00, 0x00, 0x00, 0x00, 0x2e, 0xed, 0x00, 0x00, 0x00, 0x00, 0x00, 0x00,
  0x00, 0xec, 0xdd, 0x00, 0x00, 0x00, 0x00, 0x00, 0x00, 0xeb, 0xf3, 0x00,
  0x00, 0x00, 0x00, 0x00, 0x00, 0x00, 0x00, 0x00, 0xdd, 0xc3, 0x00, 0xaa,
  0x00, 0x00, 0x00, 0x00, 0x00, 0x00, 0x00, 0xe0, 0x00, 0x00, 0x00, 0x00,
  0x00, 0x00, 0xe7, 0x00, 0x00, 0xe3, 0x00, 0x00, 0xda, 0x00, 0xd1, 0xd0,
  0xee, 0x00, 0xd7, 0x00, 0xef, 0x00, 0x00, 0x00, 0x15, 0x00, 0xe0, 0x00,
  0x00, 0x00, 0x00, 0x00, 0x00, 0x00, 0xd3, 0xd6, 0xc2, 0x00, 0x00, 0x00,
  0x00, 0x00, 0xde, 0x00, 0x00, 0x00, 0x00, 0xda, 0xd9, 0x00, 0xa0, 0x00,
  0x00, 0x00, 0xe6, 0x00, 0xde, 0xd7, 0x00, 0x00, 0x00, 0x00, 0x00, 0x00,
  0x00, 0xe2, 0x00, 0x00, 0xf1, 0xd6, 0x00, 0x00, 0x00, 0x00, 0x0f, 0xe5,
  0x00, 0xe7, 0x00, 0x00, 0x34, 0x00, 0x2d, 0x00, 0x10, 0xc3, 0x31, 0xd4,
  0x00, 0x00, 0x00, 0x3b, 0x00, 0x00, 0xf3, 0x00, 0x00, 0x00, 0x00, 0xe6,
  0x00, 0x00, 0x00, 0x00, 0x00, 0x00, 0x00, 0x00, 0x00, 0xdf, 0x00, 0x00,
  0x00, 0x00, 0x00, 0x42, 0x00, 0xa5, 0x00, 0x00, 0x00, 0x00, 0x00, 0x00,
  0x2b, 0x10, 0x11, 0x2f, 0x00, 0x00, 0x00, 0x00, 0x18, 0x00, 0x00, 0x00,
  0x00, 0x00, 0x00, 0x00, 0x00, 0x00, 0x00, 0x00, 0x00, 0x00, 0x00, 0x00,
  0x13, 0x00, 0xe0, 0x00, 0x00, 0x00, 0x00, 0x00, 0xdc, 0x00, 0x00, 0x00,
  0x00, 0x00, 0x00, 0x3b, 0x00, 0x00, 0x00, 0x00, 0x00, 0x00, 0x00, 0xce,
  0x00, 0x00, 0x00, 0x00, 0x3f, 0x00, 0x00, 0x00, 0x00, 0x00, 0x00, 0x00,
  0x00, 0x00, 0x00, 0x2f, 0x00, 0x00, 0x00, 0x00, 0x00, 0xc2, 0x14, 0x00,
  0x00, 0x00, 0x00, 0x00, 0x21, 0x15, 0x00, 0x00, 0x00, 0x00, 0x11, 0x00,
  0x00, 0x00, 0x22, 0x00, 0x00, 0x81, 0xd5, 0xac, 0x00, 0x00, 0x00, 0x00,
  0x00, 0x00, 0x00, 0x00, 0x00, 0xed, 0x00, 0x3b, 0x00, 0xd1, 0x00, 0xe6,
  0x00, 0x16, 0x00, 0x00, 0x00, 0x00, 0x00, 0x1a, 0x45, 0x00, 0x00, 0x00,
  0x00, 0x00, 0x1b, 0x00, 0x00, 0x00, 0x00, 0x13, 0xe7, 0x00, 0x00, 0x00,
  0x00, 0xe9, 0x00, 0x00, 0x00, 0x00, 0x00, 0x00, 0x00, 0x00, 0x00, 0xd7,
  0x00, 0x00, 0x00, 0x00, 0xef, 0x00, 0x00, 0x00, 0x00, 0x00, 0x00, 0xdd,
  0x00, 0xe9, 0x00, 0x00, 0x00, 0x00, 0x00, 0x00, 0x23, 0x00, 0xf2, 0x00,
  0x00, 0x00, 0x00, 0x00, 0x00, 0x00, 0x00, 0x00, 0xe7, 0x00, 0x00, 0x00,
  0x00, 0x00, 0x00, 0xf4, 0x00, 0x00, 0x00, 0x00, 0x36, 0x00, 0x00, 0x00,
  0x00, 0x00, 0x00, 0x00, 0x00, 0x00, 0x00, 0x00, 0x00, 0x00, 0x00, 0xf3,
  0x00, 0x00, 0x00, 0x00, 0x00, 0x00, 0x00, 0x00, 0x00, 0x1d, 0x00, 0x00,
  0x00, 0x00, 0x00, 0x00, 0x00, 0xd9, 0x00, 0x00, 0x00, 0x00, 0x00, 0x00,
  0x0d, 0xe5, 0xed, 0x00, 0x00, 0x00, 0x00, 0x00, 0x00, 0x00, 0x00, 0x00,
  0x00, 0x00, 0x00, 0x00, 0x00, 0x00, 0x00, 0x00, 0x00, 0x00, 0x00, 0x00,
  0x00, 0x00, 0x00, 0x00, 0x00, 0x00, 0xe7, 0xf3, 0x00, 0x00, 0x00, 0x00,
  0x00, 0x1c, 0x00, 0xec, 0x00, 0x00, 0x00, 0x13, 0xe4, 0x00, 0x00, 0xee,
  0x00, 0x00, 0x00, 0x00, 0xf0, 0x00, 0x00, 0x00, 0x00, 0x00, 0x00, 0x00,
  0xf5, 0x00, 0x00, 0x0c, 0x00, 0x00, 0x00, 0x00, 0x00, 0x00, 0x00, 0x12,
  0x0e, 0x2e, 0x39, 0xe9, 0x00, 0x00, 0x00, 0x19, 0x21, 0x00, 0x00, 0x00,
  0x00, 0x00, 0x00, 0x00, 0x00, 0x00, 0x00, 0x00, 0x00, 0x00, 0x20, 0xeb,
  0x00, 0x00, 0xcb, 0x00, 0xf4, 0x00, 0x00, 0x00, 0x00, 0x00, 0x10, 0x00,
  0x00, 0x2b, 0xea, 0x00, 0x00, 0x1f, 0x0b, 0x00, 0x00, 0x00, 0x00, 0x00,
  0xe3, 0x00, 0xdc, 0xe7, 0x00, 0x00, 0x2a, 0x00, 0x00, 0x00, 0x00, 0xe3,
  0xe5, 0x00, 0x00, 0x00, 0x00, 0xf1, 0xdd, 0x00, 0x00, 0x00, 0xd5, 0xdd,
  0x00, 0x00, 0x00, 0x00, 0x00, 0x00, 0x00, 0x00, 0x00, 0x00, 0x00, 0x00,
  0x00, 0x00, 0x00, 0x00, 0xbb, 0x0b, 0x00, 0x00, 0x00, 0x3e, 0x00, 0x00,
  0x00, 0xdc, 0x00, 0x00, 0xdd, 0x00, 0x00, 0xd8, 0x00, 0x00, 0x00, 0x0e,
  0x00, 0x00, 0x00, 0x7f, 0x00, 0x00, 0x00, 0x19, 0x00, 0x0c, 0x00, 0x00,
  0x00, 0x00, 0xc6, 0x00, 0x00, 0x00, 0x00, 0x1b, 0xe2, 0x00, 0x00, 0x00,
  0x00, 0x2f, 0x00, 0x00, 0x00, 0x00, 0x1b, 0x00, 0x00, 0x00, 0x00, 0x00,
  0x00, 0x00, 0x00, 0x00, 0x00, 0x1f, 0x00, 0x00, 0x00, 0x00, 0x00, 0xba,
  0x00, 0x00, 0x43, 0x00, 0x00, 0x00, 0x00, 0x0c, 0x2b, 0x47, 0x30, 0x00,
  0x00, 0x40, 0x13, 0x00, 0xee, 0x00, 0x38, 0x00, 0x00, 0xe6, 0x00, 0x00,
  0x00, 0x00, 0x00, 0x1d, 0x00, 0xd9, 0x00, 0x00, 0x00, 0x34, 0x00, 0x00,
  0x00, 0x00, 0x00, 0x26, 0x00, 0x00, 0x00, 0x00, 0x00, 0x37, 0x00, 0x16,
  0x00, 0xd1, 0x00, 0x00, 0xf1, 0x00, 0x0f, 0x00, 0x00, 0x22, 0x00, 0x10,
  0x13, 0xa6, 0x00, 0x00, 0x00, 0x00, 0x00, 0xe4, 0x00, 0x00, 0x00, 0x00,
  0x00, 0x00, 0x00, 0x00, 0x00, 0x00, 0x00, 0xe0, 0x00, 0x00, 0x00, 0x00,
  0x3e, 0x00, 0xdd, 0x00, 0x00, 0xdd, 0x00, 0xe5, 0x00, 0xc1, 0x00, 0xc4,
  0xec, 0x00, 0x00, 0xd9, 0x00, 0x00, 0x00, 0x44, 0x00, 0xbd, 0x00, 0x00,
  0x00, 0x00, 0xd3, 0x00, 0x00, 0x00, 0x00, 0x26, 0x1e, 0x00, 0x00, 0x00,
  0x00, 0x00, 0x00, 0x00, 0x00, 0x00, 0xcf, 0x00, 0xee, 0x00, 0xcc, 0x00,
  0xe0, 0x00, 0x00, 0x00, 0x00, 0x00, 0x00, 0x24, 0x00, 0x00, 0x00, 0x26,
  0x00, 0x00, 0x00, 0x00, 0x00, 0x00, 0xe7, 0x28, 0x00, 0x00, 0x00, 0x00,
  0x00, 0x00, 0x00, 0xdc, 0x00, 0xe2, 0x00, 0x00, 0x00, 0x00, 0xcc, 0xe0,
  0xc0, 0x00, 0xd7, 0x00, 0xb6, 0x00, 0x00, 0x00, 0xdd, 0x00, 0x91, 0x00,
  0x4a, 0x00, 0x00, 0x00, 0x00, 0x10, 0x00, 0x00, 0x00, 0x94, 0x10, 0x00,
  0x00, 0xcd, 0x15, 0x00, 0x9c, 0x00, 0x00, 0x00, 0x00, 0x00, 0x00, 0x54,
  0x00, 0x00, 0x00, 0x00, 0x00, 0x00, 0x81, 0x00, 0x00, 0x00, 0x00, 0x17,
  0x00, 0xe4, 0x00, 0x00, 0x00, 0xd8, 0x00, 0x00, 0x0f, 0x00, 0x00, 0x00,
  0xf1, 0x00, 0x00, 0x19, 0x00, 0xec, 0x2b, 0x42, 0x00, 0x00, 0x00, 0x00,
  0x00, 0x0c, 0x00, 0x00, 0x00, 0x00, 0xd9, 0x00, 0xe5, 0x00, 0x00, 0xd7,
  0x00, 0x00, 0x00, 0x00, 0x00, 0x00, 0x00, 0xec, 0xe2, 0x00, 0xe8, 0xcc,
  0x00, 0x00, 0x00, 0xe7, 0x00, 0x00, 0x00, 0xda, 0x00, 0x00, 0x00, 0x00,
  0x00, 0x16, 0x00, 0x25, 0x00, 0x00, 0x00, 0x00, 0x00, 0xe9, 0x10, 0x00,
  0x00, 0x00, 0x00, 0x00, 0x00, 0x00, 0x00, 0xcf, 0x00, 0x00, 0x00, 0x00,
  0xc6, 0x00, 0x00, 0x00, 0x00, 0x00, 0x00, 0x00, 0x00, 0x00, 0x00, 0x00,
  0x00, 0x00, 0x00, 0x00, 0x00, 0x00, 0x13, 0x00, 0x0c, 0x00, 0x00, 0x00,
  0xb5, 0x00, 0x00, 0x00, 0x00, 0x00, 0x20, 0x00, 0x15, 0xe8, 0x00, 0x00,
  0x00, 0xd6, 0x00, 0x00, 0x00, 0x00, 0x00, 0xe8, 0x00, 0xe4, 0x00, 0x00,
  0x00, 0xe4, 0x00, 0xeb, 0x00, 0x18, 0x00, 0x00, 0x00, 0xd7, 0x00, 0x22,
  0x00, 0x00, 0x00, 0x00, 0x00, 0x00, 0x00, 0x00, 0x00, 0x30, 0x00, 0x00,
  0x1a, 0x00, 0x00, 0x00, 0x1f, 0x00, 0x00, 0x00, 0x16, 0xb5, 0x00, 0x00,
  0x11, 0xf1, 0x00, 0x00, 0x00, 0x00, 0x00, 0x00, 0x00, 0x00, 0x12, 0x00,
  0x00, 0xce, 0x00, 0x2a, 0x11, 0xe0, 0x00, 0xdd, 0x00, 0x00, 0x00, 0x00,
  0x00, 0x00, 0x00, 0x12, 0x22, 0xe1, 0x00, 0x00, 0x00, 0x00, 0xe8, 0x00,
  0xe7, 0x1f, 0x10, 0x00, 0x00, 0x00, 0x00, 0x15, 0x00, 0xcb, 0x00, 0x00,
  0x00, 0x00, 0x00, 0x2f, 0x00, 0x00, 0x00, 0x25, 0x00, 0x00, 0x00, 0x00,
  0x00, 0xc1, 0x00, 0x00, 0x00, 0x00, 0xa4, 0x00, 0x00, 0x00, 0x00, 0x00,
  0xd9, 0x8f, 0x00, 0x00, 0x00, 0x00, 0x00, 0x00, 0x00, 0x00, 0x00, 0xc7,
  0x35, 0x2d, 0x00, 0x3a, 0x00, 0x17, 0x00, 0x00, 0x00, 0x00, 0x00, 0x22,
  0x00, 0xce, 0x81, 0x00, 0x00, 0x31, 0x00, 0xd3, 0x19, 0x00, 0x23, 0x2c,
  0x31, 0x98, 0x00, 0x00, 0x00, 0x00, 0x00, 0xdb, 0xdf, 0x00, 0xec, 0xa4,
  0x00, 0xbf, 0x00, 0x00, 0x00, 0x25, 0x00, 0x00, 0xf0, 0x0c, 0x00, 0x00,
  0x00, 0x00, 0x00, 0x00, 0x00, 0x20, 0xd2, 0x00, 0x00, 0x00, 0x00, 0x00,
  0x00, 0x00, 0x00, 0x00, 0xe5, 0x00, 0x00, 0x00, 0x12, 0x12, 0x2d, 0x00,
  0x00, 0x00, 0xdd, 0x00, 0x00, 0x00, 0x00, 0x00, 0x00, 0x00, 0x00, 0x55,
  0x00, 0x00, 0x00, 0x00, 0xf0, 0x16, 0x1f, 0xe0, 0x16, 0x00, 0x00, 0x00,
  0x00, 0x00, 0x00, 0x00, 0x00, 0x00, 0x18, 0x10, 0x00, 0x15, 0x00, 0x00,
  0x00, 0x00, 0x25, 0x1d, 0x00, 0x00, 0x16, 0x00, 0x00, 0x00, 0x00, 0x00,
  0x00, 0x00, 0x20, 0x15, 0x00, 0x00, 0x00, 0x0d, 0x00, 0xe3, 0x00, 0x00,
  0x00, 0x00, 0x00, 0x00, 0x00, 0x00, 0x00, 0x00, 0x00, 0xda, 0x00, 0x00,
  0x00, 0x00, 0x00, 0xa7, 0x00, 0x00, 0x00, 0x00, 0x00, 0x00, 0x00, 0x00,
  0x00, 0x8b, 0x00, 0xbe, 0x00, 0x00, 0x00, 0x00, 0xe0, 0x00, 0x00, 0x00,
  0x00, 0xf1, 0xe5, 0xc7, 0x00, 0x00, 0x38, 0x00, 0x00, 0x00, 0xde, 0x00,
  0x00, 0x00, 0x00, 0x1b, 0x00, 0x00, 0xd3, 0x23, 0xd8, 0x00, 0x00, 0x00,
  0x10, 0x00, 0xed, 0x00, 0x00, 0x00, 0xc5, 0x00, 0x31, 0xbb, 0x00, 0x00,
  0x0c, 0x00, 0x00, 0x00, 0x00, 0x00, 0x00, 0x00, 0x00, 0x00, 0x0c, 0x38,
  0x00, 0x00, 0xcd, 0x3b, 0x00, 0x00, 0x00, 0x00, 0x00, 0x00, 0x00, 0x00,
  0x00, 0xcd, 0x00, 0x00, 0x00, 0x00, 0x00, 0x00, 0x00, 0x00, 0xd0, 0xe5,
  0xb3, 0x1b, 0x00, 0x00, 0x00, 0x00, 0x00, 0x00, 0x00, 0xb5, 0x81, 0x00,
  0xd4, 0x00, 0x00, 0x00, 0x00, 0x00, 0xd0, 0x00, 0x00, 0x00, 0x00, 0x00,
  0x00, 0x00, 0x00, 0x00, 0x00, 0x47, 0x00, 0xe7, 0x00, 0x00, 0x3a, 0x00,
  0x00, 0x33, 0x00, 0x00, 0x00, 0x00, 0x00, 0xa6, 0x00, 0x21, 0x14, 0x12,
  0xae, 0x00, 0x00, 0xe6, 0x00, 0xb5, 0x00, 0x00, 0x00, 0x00, 0x00, 0x00,
  0x00, 0x4a, 0x5c, 0x00, 0x00, 0xe2, 0x00, 0x34, 0xe2, 0x0d, 0xdb, 0x1d,
  0x00, 0x00, 0x00, 0xc5, 0x00, 0x00, 0x00, 0x21, 0xd2, 0xe9, 0x00, 0x00,
  0xe7, 0x00, 0x00, 0x00, 0x00, 0xe5, 0x00, 0x00, 0xed, 0x00, 0x38, 0x00,
  0x00, 0xdd, 0x00, 0x00, 0xe7, 0x00, 0x00, 0x00, 0x00, 0x00, 0x00, 0x00,
  0xdf, 0x00, 0x00, 0x00, 0x00, 0x00, 0x35, 0x00, 0x00, 0x1f, 0x00, 0x00,
  0x00, 0x00, 0xe5, 0xde, 0x00, 0x00, 0x00, 0x00, 0x00, 0x00, 0x00, 0x00,
  0x37, 0x41, 0x24, 0x00, 0x00, 0x00, 0x00, 0x00, 0x29, 0x00, 0x2f, 0x7f,
  0xd3, 0x00, 0x00, 0x00, 0x12, 0x39, 0x00, 0x00, 0x00, 0xe6, 0xe0, 0x00,
  0x00, 0x00, 0x00, 0x00, 0x00, 0x00, 0x00, 0x00, 0x0d, 0x58, 0x00, 0x00,
  0x00, 0x00, 0x00, 0x00, 0x00, 0xe2, 0x00, 0x00, 0xda, 0x00, 0x00, 0x00,
  0x13, 0x00, 0x00, 0x00, 0x00, 0x00, 0x00, 0x00, 0x00, 0xdf, 0x00, 0x00,
  0x00, 0x00, 0x00, 0xe2, 0x00, 0x00, 0x00, 0xdb, 0x00, 0x00, 0x00, 0x47,
  0x00, 0xc1, 0x00, 0x00, 0x00, 0x00, 0x00, 0x00, 0x00, 0x00, 0x00, 0x00,
  0x00, 0x00, 0x00, 0xcd, 0x00, 0x00, 0x00, 0x00, 0x00, 0x00, 0x00, 0x00,
  0xe4, 0x00, 0x00, 0x00, 0x00, 0x00, 0x00, 0x00, 0x00, 0x00, 0xab, 0xdb,
  0x00, 0x00, 0x0f, 0x00, 0x00, 0x2b, 0x00, 0x00, 0x00, 0x00, 0x00, 0x00,
  0x00, 0xe9, 0x00, 0x12, 0x00, 0x00, 0x00, 0x00, 0x00, 0x00, 0x00, 0x00,
  0x00, 0x00, 0x00, 0x00, 0x00, 0xc1, 0x00, 0x00, 0x00, 0x00, 0xec, 0x5f,
  0x00, 0x00, 0xb6, 0x00, 0x1f, 0x00, 0x00, 0x1f, 0x00, 0x00, 0x00, 0x00,
  0x00, 0x35, 0x00, 0x00, 0x00, 0x00, 0x00, 0xbd, 0x26, 0xbe, 0x00, 0x00,
  0x00, 0xde, 0x28, 0x00, 0x00, 0x1d, 0x00, 0x17, 0x00, 0x00, 0x00, 0x00,
  0x38, 0xa9, 0x00, 0x00, 0x00, 0x00, 0x00, 0x00, 0xb4, 0x00, 0x00, 0xc2,
  0x00, 0x00, 0x18, 0x3a, 0x00, 0x00, 0x00, 0x00, 0x00, 0xdf, 0xcd, 0x00,
  0x00, 0x00, 0x00, 0x22, 0x36, 0x00, 0xd9, 0x00, 0x39, 0x00, 0x00, 0x34,
  0x00, 0x00, 0x00, 0x00, 0x00, 0x2d, 0x00, 0x00, 0x00, 0xdb, 0x00, 0x00,
  0x00, 0x00, 0xd4, 0x00, 0x00, 0x00, 0x18, 0x00, 0x00, 0x00, 0x00, 0x00,
  0x00, 0x00, 0x00, 0xeb, 0x00, 0x00, 0x00, 0x00, 0x00, 0x00, 0x00, 0xee,
  0x00, 0x00, 0x00, 0x00, 0xe6, 0x00, 0xec, 0x00, 0x22, 0x00, 0x00, 0x00,
  0xec, 0x00, 0x17, 0x00, 0x00, 0x00, 0x00, 0xd2, 0x00, 0x00, 0x25, 0x00,
  0x00, 0xcf, 0xe1, 0x00, 0x00, 0x00, 0x00, 0x00, 0xe8, 0x20, 0x00, 0x00,
  0x00, 0x00, 0x00, 0xc2, 0xe2, 0x00, 0x00, 0x00, 0x00, 0x00, 0x00, 0x00,
  0x00, 0x00, 0x00, 0x00, 0x00, 0x19, 0x00, 0x00, 0x00, 0xc9, 0x1b, 0x00,
  0x00, 0xca, 0x00, 0x00, 0x00, 0x00, 0x14, 0x00, 0x00, 0x00, 0x00, 0x1c,
  0x00, 0x00, 0x00, 0x36, 0x00, 0x00, 0x00, 0x00, 0x00, 0x00, 0x00, 0x00,
  0x00, 0x00, 0xd7, 0x00, 0x2d, 0x00, 0xc6, 0x48, 0x00, 0x00, 0xc4, 0x00,
  0xe9, 0x2b, 0x31, 0x00, 0x00, 0x00, 0x00, 0x3e, 0x00, 0xa3, 0x00, 0x00,
  0x00, 0x00, 0x00, 0x00, 0x00, 0x00, 0x00, 0x37, 0x00, 0x00, 0x00, 0x00,
  0x00, 0xd7, 0x00, 0x00, 0x00, 0x00, 0x00, 0x00, 0x00, 0xef, 0x00, 0x00,
  0x00, 0x00, 0x00, 0x00, 0x00, 0x00, 0x00, 0x00, 0x00, 0x00, 0x00, 0x00,
  0x00, 0x00, 0x00, 0x00, 0x00, 0x00, 0xcf, 0x00, 0x00, 0x00, 0x00, 0x00,
  0x00, 0x00, 0x00, 0x00, 0xe0, 0x40, 0x00, 0x00, 0x00, 0x00, 0x00, 0x21,
  0x2c, 0x00, 0x17, 0x00, 0x00, 0x00, 0x00, 0x00, 0xbb, 0xc1, 0xde, 0x00,
  0x00, 0x00, 0x00, 0x00, 0x00, 0x00, 0x00, 0x00, 0x00, 0xd4, 0x00, 0x00,
  0x00, 0x00, 0x00, 0x00, 0x00, 0xe3, 0x00, 0x98, 0x00, 0xa4, 0x00, 0x00,
  0x00, 0x00, 0x00, 0x00, 0x34, 0x00, 0x00, 0x00, 0x00, 0x00, 0x00, 0x00,
  0x00, 0x00, 0x00, 0x00, 0x00, 0x00, 0x00, 0x00, 0x00, 0x29, 0x2e, 0xa9,
  0x00, 0x00, 0x00, 0x00, 0x00, 0x00, 0x00, 0x00, 0x00, 0x00, 0x00, 0x00,
  0x00, 0x00, 0x00, 0x00, 0x00, 0xc1, 0x7f, 0x00, 0x00, 0x00, 0x00, 0x00,
  0x00, 0xcc, 0x00, 0x00, 0xed, 0x00, 0x00, 0x00, 0x00, 0x00, 0x00, 0x00,
  0x00, 0x00, 0x00, 0x00, 0xe1, 0x00, 0x00, 0x00, 0x63, 0x00, 0x00, 0x0f,
  0xa0, 0x00, 0x00, 0x00, 0x00, 0x00, 0x00, 0x00, 0x00, 0x00, 0x00, 0x00,
  0x00, 0x00, 0x00, 0x00, 0x1e, 0x00, 0x00, 0x00, 0x00, 0x00, 0x1d, 0x00,
  0xa6, 0x00, 0x1a, 0x00, 0x00, 0x00, 0xb8, 0x00, 0x00, 0xbb, 0x00, 0x00,
  0x00, 0x00, 0x00, 0x00, 0xe0, 0x00, 0x00, 0xde, 0x85, 0x00, 0x8c, 0xb0,
  0x00, 0xdd, 0xe1, 0xc0, 0x00, 0x50, 0x81, 0x00, 0x00, 0x00, 0x00, 0xa2,
  0x00, 0x00, 0x00, 0xdc, 0xcc, 0xcc, 0x42, 0xeb, 0x00, 0x00, 0xd0, 0x00,
  0xdb, 0x00, 0x00, 0x00, 0xcf, 0x00, 0x00, 0x00, 0xe6, 0x00, 0x00, 0x00,
  0xe5, 0x47, 0xa6, 0xad, 0xcd, 0x00, 0x00, 0x00, 0x00, 0xc2, 0x00, 0x00,
  0xe7, 0x00, 0x00, 0x00, 0xe2, 0x00, 0x00, 0x00, 0x00, 0x00, 0x00, 0xc2,
  0x00, 0x00, 0x00, 0x00, 0x00, 0x00, 0x00, 0x93, 0x00, 0xe4, 0x00, 0x00,
  0xde, 0x36, 0x00, 0x00, 0x26, 0x00, 0xe7, 0xde, 0x00, 0xc1, 0x00, 0x19,
  0x00, 0xd4, 0x00, 0x00, 0x00, 0x00, 0x00, 0x00, 0x00, 0x00, 0x00, 0x00,
  0x00, 0x00, 0x23, 0x00, 0x9e, 0x00, 0x00, 0x00, 0x00, 0x00, 0x00, 0x00,
  0x00, 0x00, 0x00, 0x00, 0x00, 0x00, 0x28, 0x34, 0xc8, 0x00, 0x9f, 0x00,
  0x00, 0x49, 0x00, 0x00, 0x00, 0x00, 0x1f, 0x00, 0x15, 0x00, 0x00, 0xd3,
  0x00, 0x00, 0x00, 0x00, 0x00, 0x00, 0x00, 0x19, 0x00, 0x00, 0x00, 0x95,
  0xc9, 0x00, 0x21, 0x00, 0x00, 0x21, 0xbc, 0x00, 0x00, 0x00, 0x00, 0x00,
  0xe1, 0x00, 0x00, 0x00, 0x1d, 0x3d, 0x00, 0x00, 0x00, 0x46, 0x00, 0x00,
  0x00, 0x00, 0x00, 0x00, 0x00, 0x00, 0x00, 0xd5, 0x00, 0xd0, 0x00, 0x00,
  0x6e, 0xda, 0xa3, 0x00, 0x12, 0x3e, 0x00, 0x2b, 0x00, 0x63, 0x00, 0x00,
  0x00, 0x00, 0x00, 0x00, 0x42, 0xc9, 0x00, 0x00, 0x00, 0x00, 0x00, 0x00,
  0xc7, 0x00, 0x00, 0x00, 0x00, 0x00, 0x2c, 0x24, 0x00, 0x00, 0x00, 0x00,
  0x00, 0x54, 0x3c, 0x00, 0x1b, 0x00, 0x18, 0x00, 0x00, 0x00, 0x00, 0x00,
  0x9f, 0x00, 0x00, 0x00, 0x00, 0x4e, 0x00, 0x00, 0x00, 0x00, 0x00, 0x00,
  0x00, 0x00, 0x19, 0x00, 0x00, 0x00, 0x00, 0x00, 0x00, 0x3e, 0x29, 0x2f,
  0x00, 0x00, 0x00, 0x43, 0x00, 0x00, 0x00, 0x00, 0x00, 0x00, 0x00, 0x00,
  0x00, 0x34, 0x00, 0x00, 0x00, 0x4e, 0x00, 0x00, 0x00, 0x66, 0x00, 0x4b,
  0x2f, 0x00, 0xbd, 0x00, 0x00, 0x00, 0x00, 0x47, 0x00, 0x00, 0x00, 0x00,
  0x31, 0x00, 0x00, 0x00, 0x11, 0x24, 0x00, 0x00, 0x00, 0x00, 0x00, 0x00,
  0x00, 0x00, 0x00, 0x00, 0x00, 0x00, 0x00, 0x00, 0x00, 0x00, 0x00, 0x00,
  0x00, 0x00, 0x00, 0x00, 0x00, 0x00, 0x00, 0x96, 0x00, 0x21, 0xe6, 0x00,
  0x31, 0x00, 0x00, 0x00, 0x00, 0x00, 0x00, 0x00, 0x00, 0x00, 0x00, 0xb3,
  0x91, 0xaa, 0x00, 0x81, 0xe3, 0x00, 0x00, 0x00, 0xd9, 0x00, 0x00, 0xce,
  0x00, 0x00, 0xb7, 0x00, 0x00, 0x00, 0x90, 0x00, 0x00, 0x00, 0xda, 0x00,
  0x00, 0x00, 0x00, 0x8f, 0x00, 0x4a, 0x00, 0x00, 0x00, 0x37, 0x00, 0x00,
  0x2a, 0x00, 0x00, 0x00, 0x00, 0xe8, 0x00, 0x00, 0x00, 0x16, 0x00, 0x00,
  0x00, 0x00, 0x00, 0x00, 0x15, 0x00, 0x00, 0x00, 0x26, 0xaf, 0x00, 0x00,
  0x00, 0xe7, 0xe6, 0x00, 0x00, 0x00, 0xce, 0x00, 0x2b, 0x00, 0x00, 0x00,
  0x00, 0x00, 0x00, 0x00, 0x00, 0x00, 0x00, 0xdc, 0x1b, 0x00, 0x00, 0x00,
  0x00, 0x00, 0x00, 0xc3, 0x12, 0xb1, 0x00, 0x00, 0x00, 0x00, 0x00, 0x00,
  0x00, 0x00, 0x00, 0x00, 0x00, 0x00, 0x00, 0xc5, 0x00, 0x00, 0xe2, 0x33,
  0x00, 0x00, 0x00, 0x00, 0x00, 0x00, 0x00, 0x00, 0xb4, 0x00, 0x4a, 0x00,
  0x00, 0x00, 0xb0, 0xb2, 0x00, 0x00, 0x00, 0x00, 0x00, 0x00, 0x00, 0x00,
  0x44, 0x9e, 0xcc, 0x00, 0x00, 0x00, 0x00, 0x00, 0x00, 0x00, 0x39, 0x00,
  0x00, 0xc9, 0x00, 0x00, 0x00, 0x00, 0xde, 0x00, 0x00, 0xc6, 0x00, 0x00,
  0x00, 0x00, 0x00, 0x00, 0x00, 0x00, 0xe0, 0x00, 0x2b, 0x00, 0x00, 0x1f,
  0x00, 0x90, 0x00, 0xe0, 0x00, 0x00, 0x00, 0x00, 0x00, 0x00, 0xe5, 0x00,
  0x00, 0x00, 0x00, 0x22, 0x00, 0x00, 0x00, 0x00, 0x4b, 0x00, 0x00, 0x00,
  0x00, 0x00, 0x00, 0x00, 0xbf, 0x00, 0x00, 0x00, 0x00, 0xc9, 0x00, 0x00,
  0x00, 0x00, 0x00, 0x00, 0x00, 0x00, 0x3a, 0x00, 0xd7, 0x00, 0x00, 0x00,
  0x00, 0x00, 0x00, 0x00, 0x00, 0x00, 0x00, 0x00, 0xdc, 0x00, 0xd2, 0x00,
  0x00, 0x00, 0x00, 0xbd, 0xf1, 0x00, 0x00, 0x00, 0x00, 0x9a, 0xbb, 0xd6,
  0xd1, 0xc1, 0x00, 0x00, 0x81, 0xc8, 0x13, 0x00, 0x00, 0x00, 0x00, 0x9a,
  0x00, 0x1f, 0x00, 0x27, 0x00, 0x00, 0xd2, 0x00, 0x00, 0x00, 0x00, 0x00,
  0x11, 0xc2, 0x00, 0x00, 0x00, 0x00, 0x21, 0x00, 0x00, 0x00, 0x00, 0x3c,
  0x00, 0x00, 0x00, 0x00, 0x00, 0x00, 0x00, 0x00, 0x00, 0x00, 0x00, 0x00,
  0x00, 0x00, 0x00, 0x00, 0x00, 0x00, 0x00, 0x00, 0x00, 0x1f, 0x00, 0x00,
  0x00, 0x00, 0x00, 0x00, 0x00, 0x19, 0x00, 0x00, 0x00, 0x27, 0x00, 0x00,
  0x00, 0x00, 0x00, 0x00, 0x00, 0x00, 0x00, 0x00, 0x00, 0x20, 0x00, 0xdc,
  0x00, 0xe1, 0x00, 0xc1, 0x00, 0x00, 0x00, 0xe8, 0x00, 0x00, 0xd4, 0x00,
  0xcd, 0x99, 0xdf, 0x00, 0x00, 0xb3, 0x00, 0x00, 0xca, 0x00, 0x00, 0xc6,
  0xec, 0x00, 0x00, 0x00, 0x00, 0x2c, 0xd6, 0x00, 0x00, 0x00, 0xd5, 0x00,
  0x00, 0xe2, 0x00, 0x35, 0x00, 0x1a, 0x34, 0x00, 0x1a, 0x50, 0x00, 0xea,
  0x11, 0x00, 0x00, 0x00, 0x00, 0x00, 0x2b, 0x00, 0x00, 0x00, 0x00, 0x00,
  0x00, 0x00, 0x00, 0x00, 0x00, 0xdb, 0x00, 0xef, 0x00, 0x00, 0x33, 0x00,
  0x00, 0x00, 0x00, 0x00, 0x00, 0x3e, 0x00, 0x00, 0x00, 0x1b, 0x00, 0x00,
  0xe3, 0x00, 0x00, 0x00, 0x00, 0x00, 0xed, 0x00, 0x00, 0x21, 0x00, 0x00,
  0xcc, 0x00, 0x00, 0x00, 0x00, 0xf3, 0x00, 0x00, 0x00, 0xad, 0x00, 0x00,
  0x00, 0x00, 0x00, 0x00, 0xa1, 0x00, 0x00, 0x00, 0x00, 0x00, 0x00, 0xd9,
  0x00, 0x00, 0x0f, 0x00, 0x00, 0x00, 0x00, 0x00, 0x00, 0x00, 0xd8, 0x00,
  0x00, 0x00, 0x00, 0x00, 0x00, 0x00, 0x00, 0x00, 0x00, 0x00, 0x00, 0x00,
  0x00, 0x00, 0x00, 0x00, 0x00, 0x00, 0x25, 0x00, 0xda, 0xcc, 0x00, 0xd2,
  0x1c, 0x00, 0x00, 0x00, 0xe6, 0x00, 0x00, 0x14, 0x00, 0x00, 0x00, 0xe8,
  0x00, 0x00, 0x00, 0x00, 0x00, 0x00, 0x00, 0x00, 0x00, 0x24, 0x00, 0x00,
  0x00, 0x3b, 0x00, 0x00, 0xde, 0x00, 0x00, 0x30, 0x21, 0x00, 0x00, 0x00,
  0x00, 0xcd, 0xd8, 0x00, 0x00, 0x00, 0xc8, 0x00, 0x00, 0x00, 0x00, 0x00,
  0x00, 0x2c, 0x00, 0xe5, 0x00, 0xd2, 0x00, 0x00, 0x22, 0xd1, 0x00, 0x00,
  0x00, 0x00, 0x00, 0x00, 0x00, 0x00, 0x00, 0x00, 0x00, 0x00, 0x00, 0x00,
  0x00, 0x00, 0x00, 0x00, 0x00, 0x00, 0x00, 0xd0, 0x00, 0x00, 0x00, 0x00,
  0x00, 0xdf, 0x00, 0x00, 0x00, 0x00, 0x34, 0xac, 0x00, 0x26, 0x00, 0x00,
  0xe1, 0x00, 0x00, 0x00, 0x00, 0x00, 0x00, 0x00, 0x00, 0x00, 0x2f, 0x00,
  0xc3, 0x00, 0x00, 0x00, 0x00, 0x41, 0x00, 0x00, 0x00, 0x00, 0x00, 0x00,
  0x00, 0x00, 0x16, 0x00, 0x9f, 0x00, 0xe6, 0x00, 0x00, 0x25, 0x00, 0x00,
  0x00, 0x00, 0x00, 0x00, 0x00, 0x18, 0x00, 0x00, 0x00, 0x00, 0x00, 0x00,
  0x00, 0x00, 0x00, 0x00, 0x00, 0x00, 0x00, 0x00, 0x00, 0x00, 0x00, 0x00,
  0x00, 0x48, 0x00, 0x00, 0x00, 0x27, 0x28, 0x00, 0x00, 0x00, 0x00, 0x00,
  0x00, 0x00, 0x00, 0x00, 0x23, 0x00, 0x47, 0x00, 0x00, 0x00, 0x00, 0x00,
  0x00, 0x00, 0x5b, 0x00, 0x26, 0x00, 0x00, 0x00, 0x13, 0x00, 0x2a, 0x00,
  0x00, 0x00, 0xdb, 0x2d, 0x00, 0xc9, 0x00, 0x00, 0x10, 0x00, 0xb0, 0x00,
  0x00, 0x00, 0x00, 0x4f, 0x00, 0xb6, 0x00, 0x15, 0x00, 0x00, 0xc9, 0xc3,
  0x3c, 0x00, 0x00, 0x1f, 0x00, 0xa4, 0x00, 0x00, 0xea, 0x00, 0x00, 0xd8,
  0x8e, 0x22, 0xe3, 0x00, 0x00, 0x70, 0x00, 0x00, 0x00, 0x00, 0xc5, 0x00,
  0xa1, 0x00, 0x00, 0x00, 0x00, 0x00, 0x00, 0xd0, 0x00, 0x00, 0x00, 0x00,
  0x00, 0xe9, 0x00, 0x00, 0x00, 0x00, 0x37, 0x00, 0x00, 0x00, 0x00, 0x00,
  0xef, 0x31, 0x00, 0x91, 0x00, 0xe0, 0xb5, 0x00, 0xd8, 0x00, 0x00, 0xab,
  0xc4, 0x00, 0x00, 0xb3, 0x00, 0x79, 0x00, 0x4b, 0x00, 0x00, 0x00, 0x00,
  0xbb, 0xa5, 0x2c, 0x00, 0x00, 0x00, 0x00, 0x3f, 0xc3, 0x00, 0x00, 0x00,
  0xda, 0x00, 0x00, 0x00, 0xf0, 0x81, 0x00, 0x3f, 0x00, 0x00, 0x8e, 0x00,
  0xcd, 0x00, 0xb0, 0xdf, 0x00, 0x00, 0x00, 0x00, 0x12, 0x00, 0x00, 0x00,
  0x00, 0xe1, 0x16, 0xe5, 0x0e, 0x00, 0x00, 0x00, 0xcc, 0x00, 0x00, 0x00,
  0x00, 0x00, 0x27, 0x00, 0x00, 0x00, 0x00, 0x36, 0x00, 0x00, 0x00, 0x00,
  0x00, 0x00, 0x00, 0x43, 0x00, 0x00, 0xc7, 0x00, 0x00, 0x00, 0x00, 0x16,
  0x00, 0x00, 0x00, 0x00, 0xb6, 0x00, 0x00, 0x00, 0x00, 0x00, 0x00, 0x00,
  0x2e, 0x00, 0x00, 0x00, 0x00, 0x00, 0x00, 0x00, 0x00, 0xe9, 0xd2, 0x00,
  0xcf, 0xd2, 0x00, 0xce, 0x00, 0xc7, 0xdc, 0x00, 0x00, 0x00, 0x00, 0xe4,
  0xb8, 0x00, 0x00, 0x00, 0xd7, 0x00, 0xc7, 0x00, 0x00, 0x00, 0xcb, 0x00,
  0xdd, 0xe8, 0x00, 0x00, 0x00, 0x00, 0x00, 0x00, 0x31, 0x00, 0x00, 0x15,
  0x00, 0xb7, 0xed, 0x00, 0x15, 0x00, 0x00, 0x00, 0xd9, 0x00, 0x16, 0xeb,
  0x00, 0x00, 0x00, 0x00, 0x00, 0x9d, 0x00, 0x00, 0x18, 0x00, 0x00, 0x00,
  0x39, 0x00, 0x12, 0x00, 0x00, 0x00, 0xdb, 0x00, 0x00, 0x00, 0x00, 0x1d,
  0x00, 0x00, 0xe6, 0x00, 0xce, 0x00, 0x00, 0x00, 0x00, 0x00, 0x00, 0x00,
  0x00, 0x00, 0xb7, 0x00, 0x00, 0x00, 0x00, 0x00, 0x00, 0x00, 0xda, 0x00,
  0x00, 0x00, 0x00, 0xe6, 0x00, 0x00, 0xc5, 0xcb, 0x00, 0x00, 0x00, 0x9c,
  0xdb, 0x00, 0xa9, 0x00, 0x00, 0x00, 0x00, 0x00, 0x00, 0xd1, 0x00, 0xc8,
  0x00, 0x00, 0x10, 0x00, 0x00, 0x00, 0x00, 0x00, 0x00, 0x00, 0x00, 0x00,
  0x00, 0xc7, 0xda, 0x15, 0x00, 0x00, 0x00, 0x00, 0xef, 0x00, 0x16, 0x00,
  0x00, 0x28, 0x00, 0xe9, 0x00, 0x00, 0x00, 0x00, 0x00, 0x00, 0x00, 0x00,
  0x00, 0x30, 0x00, 0x28, 0x00, 0x00, 0x4b, 0x00, 0x33, 0x0f, 0x13, 0x00,
  0x00, 0x00, 0x00, 0x00, 0x00, 0x00, 0x00, 0x00, 0x00, 0x00, 0x00, 0x26,
  0x00, 0x3c, 0xea, 0x00, 0x00, 0x00, 0x00, 0x00, 0x00, 0x2d, 0xdd, 0x00,
  0x00, 0x00, 0x00, 0x00, 0x37, 0x19, 0x00, 0x22, 0x00, 0x00, 0x22, 0x00,
  0x00, 0x7f, 0x00, 0x00, 0x28, 0x00, 0x00, 0x00, 0x00, 0x3a, 0xc5, 0x00,
  0xd3, 0xbe, 0x00, 0x00, 0x00, 0x00, 0x00, 0x00, 0x00, 0x00, 0x00, 0x00,
  0x00, 0x00, 0x00, 0x00, 0x00, 0x00, 0x3e, 0x00, 0x00, 0x00, 0x00, 0x00,
  0x00, 0x00, 0x00, 0x63, 0x00, 0x00, 0xab, 0x00, 0xdb, 0x27, 0x00, 0x00,
  0x00, 0xe5, 0xb4, 0x00, 0x00, 0x00, 0x00, 0x00, 0x00, 0x00, 0xc1, 0x00,
  0xe8, 0x00, 0x00, 0x00, 0x00, 0x40, 0x00, 0x00, 0x00, 0x00, 0x00, 0x00,
  0x00, 0x00, 0xb1, 0x00, 0xcb, 0x00, 0x00, 0x00, 0x00, 0x00, 0x00, 0x00,
  0x00, 0x00, 0x00, 0x00, 0x00, 0x00, 0xcd, 0xd6, 0x00, 0x00, 0x00, 0x85,
  0x00, 0x00, 0x00, 0xbe, 0x00, 0xc3, 0xda, 0x00, 0x00, 0x00, 0x00, 0x00,
  0xab, 0x00, 0x00, 0x00, 0x00, 0x29, 0x00, 0xda, 0x00, 0x00, 0x00, 0x42,
  0x00, 0x00, 0x00, 0x00, 0x00, 0x3a, 0x00, 0x3d, 0x00, 0x00, 0x00, 0x4a,
  0x2d, 0x00, 0x00, 0x22, 0x00, 0x2a, 0x00, 0x00, 0x00, 0x00, 0xe7, 0x00,
  0x00, 0x1b, 0x00, 0x00, 0x00, 0x00, 0x29, 0x2f, 0xea, 0x00, 0x00, 0x00,
  0x2b, 0x00, 0x00, 0x00, 0x1e, 0x00, 0x00, 0x00, 0x00, 0x00, 0x00, 0x00,
  0x00, 0x00, 0x00, 0x00, 0x00, 0x5d, 0x36, 0x00, 0x00, 0x00, 0x00, 0xc1,
  0x00, 0x00, 0x00, 0x00, 0x00, 0x00, 0x81, 0xe2, 0x00, 0x00, 0xa8, 0x1f,
  0x00, 0x5a, 0x4a, 0x00, 0x00, 0x00, 0x00, 0xa5, 0x00, 0x1a, 0x00, 0x00,
  0x00, 0x93, 0x4c, 0xaa, 0x00, 0x00, 0x00, 0x00, 0x00, 0x00, 0x00, 0x00,
  0x00, 0x00, 0x00, 0xbe, 0xdf, 0x00, 0x2a, 0x00, 0xc0, 0xcb, 0x00, 0x00,
  0x00, 0xa7, 0xc4, 0x00, 0x00, 0x00, 0xde, 0x00, 0xbd, 0x00, 0x00, 0x00,
  0x00, 0xdc, 0x00, 0x1e, 0x00, 0x00, 0x00, 0x00, 0x00, 0x00, 0x00, 0x00,
  0x00, 0x00, 0x64, 0x00, 0xdc, 0x00, 0x00, 0x2e, 0x00, 0x00, 0xe6, 0x00,
  0x00, 0x00, 0x00, 0x1e, 0x00, 0x00, 0xcc, 0x00, 0x00, 0x00, 0x00, 0x1a,
  0x00, 0x54, 0xc7, 0x00, 0x00, 0xca, 0x00, 0x00, 0x24, 0x00, 0x00, 0x00,
  0x00, 0x49, 0x00, 0x23, 0x00, 0x00, 0x00, 0x00, 0x00, 0x00, 0x00, 0x00,
  0x00, 0x00, 0x00, 0x00, 0x00, 0x00, 0x00, 0x00, 0x00, 0x00, 0x26, 0x00,
  0x00, 0x00, 0x00, 0xc8, 0x00, 0x00, 0x00, 0x1e, 0x00, 0x1c, 0x00, 0xa8,
  0x00, 0x3d, 0x00, 0x00, 0x00, 0x00, 0x00, 0x00, 0x00, 0x8b, 0x00, 0x00,
  0x00, 0x00, 0x00, 0x00, 0x00, 0x00, 0x00, 0x00, 0x00, 0x00, 0xd6, 0x00,
  0xdf, 0xca, 0x00, 0x1b, 0x00, 0x00, 0x00, 0x00, 0x00, 0x00, 0x00, 0xe6,
  0xee, 0x00, 0xe7, 0x00, 0x00, 0xe8, 0x34, 0x00, 0x00, 0x24, 0x00, 0x00,
  0x00, 0x00, 0x00, 0x00, 0x00, 0x00, 0x00, 0x00, 0x00, 0x00, 0x24, 0x00,
  0x94, 0x00, 0x00, 0x00, 0x00, 0x00, 0x00, 0x00, 0x00, 0x2f, 0xbc, 0xd5,
  0xe7, 0x00, 0x00, 0x00, 0x99, 0x00, 0x2c, 0xde, 0x19, 0x00, 0x00, 0x00,
  0xe2, 0x00, 0xa1, 0xca, 0x00, 0x31, 0x00, 0x00, 0x00, 0x00, 0x34, 0x48,
  0x00, 0x00, 0x00, 0x90, 0x00, 0xe2, 0x66, 0x1c, 0x00, 0x00, 0x00, 0x50,
  0x00, 0x00, 0x28, 0x00, 0x00, 0x00, 0x00, 0x00, 0x00, 0x00, 0xbf, 0x00,
  0x00, 0x00, 0x00, 0x00, 0x00, 0x00, 0x1a, 0x53, 0x00, 0x00, 0x00, 0x00,
  0x00, 0x25, 0x00, 0x00, 0x00, 0x4b, 0x00, 0x2b, 0x00, 0x00, 0x00, 0x00,
  0x00, 0x00, 0xa0, 0x00, 0x00, 0x81, 0x00, 0x00, 0x00, 0x44, 0xae, 0x00,
  0x00, 0x00, 0x00, 0x51, 0x00, 0x00, 0x00, 0x00, 0x00, 0x00, 0x00, 0x5b,
  0x00, 0x4e, 0x00, 0xd3, 0x00, 0xc3, 0x00, 0x00, 0x00, 0x00, 0xe1, 0x00,
  0xec, 0x00, 0x00, 0x00, 0xe6, 0x00, 0x00, 0x00, 0x00, 0x00, 0xa2, 0x00,
  0xda, 0x00, 0x00, 0x00, 0x00, 0x00, 0x1d, 0x00, 0x00, 0x00, 0x00, 0x00,
  0x00, 0x00, 0x00, 0x00, 0x00, 0x00, 0x00, 0x00, 0x00, 0x00, 0x00, 0x00,
  0x00, 0x00, 0x00, 0xdf, 0x00, 0x00, 0x00, 0x00, 0x00, 0xce, 0x00, 0x00,
  0x00, 0x00, 0x00, 0x00, 0x00, 0x00, 0x00, 0x00, 0x00, 0x00, 0x00, 0x6b,
  0x00, 0x00, 0x00, 0x00, 0x00, 0x00, 0x00, 0x4f, 0x00, 0x00, 0x00, 0xe6,
  0xc4, 0x00, 0x3d, 0xc0, 0x00, 0xcd, 0x00, 0x00, 0x4e, 0xe8, 0x00, 0x00,
  0x00, 0x00, 0x00, 0x00, 0x00, 0x00, 0xe1, 0x00, 0x00, 0x00, 0x00, 0x00,
  0x00, 0x00, 0x00, 0xe8, 0x10, 0x00, 0x00, 0x00, 0x00, 0x00, 0x31, 0x00,
  0x00, 0x00, 0xdf, 0x00, 0x00, 0x00, 0x00, 0x00, 0x00, 0x00, 0x00, 0x00,
  0x00, 0x00, 0x00, 0x00, 0x38, 0x00, 0x00, 0x00, 0x00, 0xda, 0x28, 0x00,
  0x00, 0x00, 0x00, 0x00, 0x00, 0x00, 0x00, 0x35, 0x21, 0x00, 0x1d, 0x49,
  0x00, 0x00, 0x00, 0xe2, 0x00, 0x00, 0x00, 0x00, 0x00, 0x00, 0x00, 0x00,
  0x00, 0xd7, 0x9b, 0x00, 0x53, 0x00, 0x00, 0x6d, 0x00, 0x00, 0x00, 0xd1,
  0xea, 0x65, 0x00, 0x00, 0x00, 0x00, 0x00, 0x00, 0x00, 0x00, 0xb5, 0x00,
  0x2e, 0x20, 0x00, 0xdc, 0xba, 0x00, 0x00, 0xd1, 0x00, 0x00, 0x38, 0xb2,
  0x00, 0x28, 0x00, 0xca, 0x00, 0x00, 0x00, 0x00, 0x13, 0xc8, 0x00, 0x00,
  0xbd, 0x33, 0x00, 0x81, 0x00, 0x00, 0x00, 0x00, 0xd4, 0x00, 0x00, 0x00,
  0x00, 0x00, 0xd3, 0x00, 0x00, 0xd8, 0x00, 0xa8, 0xc9, 0x00, 0xe1, 0xc0,
  0xdc, 0x00, 0x4b, 0x00, 0x00, 0x00, 0x00, 0x00, 0x00, 0x00, 0x00, 0x00,
  0x00, 0x00, 0xd3, 0xc4, 0xdc, 0x39, 0x00, 0x00, 0x00, 0x00, 0xdd, 0x00,
  0x00, 0x00, 0x00, 0xcd, 0x00, 0x00, 0x00, 0x00, 0x00, 0x00, 0x00, 0xa9,
  0x00, 0x00, 0xb6, 0x00, 0xe6, 0x00, 0x00, 0x00, 0x00, 0x00, 0x00, 0x00,
  0xcd, 0x00, 0x00, 0x00, 0x00, 0x00, 0x00, 0x17, 0x00, 0x00, 0x00, 0x00,
  0x00, 0x00, 0x00, 0x00, 0x00, 0x00, 0xdb, 0x00, 0xe9, 0x00, 0x00, 0x00,
  0x36, 0x00, 0x42, 0x00, 0x00, 0x00, 0x00, 0x50, 0x00, 0xde, 0x00, 0xe5,
  0x00, 0x00, 0x00, 0x00, 0xec, 0x38, 0x00, 0x00, 0x00, 0x00, 0x00, 0x00,
  0x00, 0x00, 0x00, 0x00, 0x00, 0x00, 0x00, 0x00, 0x21, 0x00, 0x00, 0x00,
  0x00, 0x00, 0x00, 0x00, 0x00, 0x00, 0x00, 0xc6, 0x00, 0x00, 0x00, 0x00,
  0x00, 0x00, 0x00, 0x00, 0x1a, 0x00, 0x00, 0xe6, 0x00, 0x00, 0x00, 0x00,
  0x00, 0x24, 0x00, 0xde, 0x00, 0x00, 0x00, 0x00, 0x00, 0x00, 0x00, 0x00,
  0x00, 0xc9, 0x00, 0x00, 0x00, 0x00, 0x00, 0x00, 0x00, 0x00, 0x00, 0x0d,
  0x23, 0xce, 0x00, 0x00, 0x00, 0x00, 0x00, 0x23, 0x00, 0x00, 0x2a, 0xda,
  0x00, 0x37, 0x00, 0xe7, 0x00, 0x00, 0x00, 0x00, 0x00, 0x81, 0x00, 0x00,
  0x00, 0x00, 0x00, 0x00, 0x00, 0xdf, 0x00, 0xee, 0x00, 0xc9, 0xe6, 0x00,
  0x00, 0x00, 0x00, 0x00, 0xc9, 0x00, 0x00, 0x00, 0x0e, 0x00, 0x00, 0x00,
  0x35, 0x00, 0x00, 0x00, 0x00, 0x00, 0x1a, 0x00, 0x23, 0x00, 0xdd, 0x00,
  0xda, 0xdb, 0x00, 0xed, 0x00, 0xdd, 0x00, 0x00, 0x00, 0x00, 0x29, 0x00,
  0xe0, 0x00, 0x00, 0x00, 0x00, 0x00, 0x00, 0x00, 0x00, 0x10, 0x00, 0x13,
  0xe4, 0x00, 0x00, 0x00, 0xcc, 0x00, 0x00, 0x00, 0xf3, 0x00, 0x00, 0x00,
  0x00, 0x00, 0x00, 0x00, 0x00, 0x00, 0xd9, 0x00, 0x00, 0x00, 0x00, 0x00,
  0x00, 0x24, 0x00, 0x00, 0x00, 0x00, 0x10, 0x00, 0x00, 0x00, 0x00, 0x00,
  0x00, 0x00, 0x00, 0x00, 0x00, 0x00, 0x00, 0x00, 0x28, 0x00, 0x00, 0x27,
  0x00, 0x00, 0x00, 0x11, 0xef, 0x00, 0x00, 0xd1, 0x00, 0x29, 0x00, 0x00,
  0x1c, 0x00, 0x00, 0x24, 0x00, 0xc9, 0x00, 0x00, 0x00, 0x00, 0x00, 0x00,
  0x00, 0x00, 0x00, 0x00, 0x00, 0x00, 0x00, 0x11, 0x00, 0x00, 0x00, 0x00,
  0xcf, 0x00, 0x00, 0x00, 0x00, 0x00, 0xf1, 0x00, 0x00, 0x00, 0x21, 0x00,
  0x00, 0x00, 0x00, 0x00, 0x00, 0x00, 0x00, 0x00, 0x00, 0x1c, 0x00, 0x00,
  0x00, 0xbd, 0x00, 0xd9, 0x00, 0x42, 0x00, 0x00, 0x00, 0x00, 0x00, 0x00,
  0x00, 0x00, 0x00, 0x00, 0x00, 0x00, 0x0d, 0x00, 0xe6, 0xec, 0x00, 0x00,
  0xd9, 0x00, 0x00, 0x00, 0x00, 0x2d, 0x00, 0x00, 0x00, 0xee, 0xe5, 0x32,
  0x00, 0x00, 0x1b, 0x00, 0x00, 0x00, 0x00, 0x00, 0x00, 0x56, 0xea, 0x00,
  0x38, 0x12, 0x00, 0x00, 0x00, 0xe6, 0x50, 0x00, 0x00, 0x32, 0x00, 0x00,
  0x00, 0x00, 0x3c, 0x00, 0x00, 0x00, 0xe2, 0xe1, 0x00, 0x00, 0x28, 0x00,
  0xea, 0xef, 0x00, 0x00, 0x00, 0x00, 0x12, 0x32, 0x00, 0x00, 0x00, 0x00,
  0xef, 0x00, 0x00, 0x00, 0x00, 0x00, 0x00, 0x00, 0x00, 0x00, 0x00, 0x00,
  0x00, 0x2f, 0x00, 0x00, 0x00, 0xdf, 0x00, 0x00, 0xd2, 0x00, 0x00, 0x00,
  0x00, 0x00, 0x00, 0x00, 0x00, 0x12, 0x00, 0x00, 0x00, 0x00, 0x00, 0x00,
  0x00, 0x00, 0xd3, 0x00, 0xde, 0x00, 0x00, 0x00, 0x00, 0x00, 0x00, 0x00,
  0x00, 0x00, 0x00, 0x00, 0x00, 0x00, 0x00, 0x00, 0x00, 0x00, 0xe3, 0x23,
  0x00, 0x00, 0x00, 0x00, 0x00, 0x00, 0x00, 0x00, 0x00, 0x00, 0x00, 0x00,
  0xb0, 0xd5, 0x00, 0x00, 0x00, 0x2c, 0x00, 0x00, 0xad, 0x00, 0x00, 0xea,
  0xbb, 0x00, 0x00, 0x94, 0xd4, 0x00, 0xc4, 0x00, 0x00, 0x00, 0x00, 0x00,
  0x00, 0x00, 0x1c, 0x00, 0x00, 0x00, 0x00, 0xea, 0x13, 0x00, 0x00, 0x16,
  0x00, 0x00, 0x00, 0xe2, 0x00, 0x00, 0x00, 0x00, 0x00, 0x00, 0x00, 0x00,
  0x00, 0x00, 0x00, 0xee, 0x00, 0x00, 0x00, 0x00, 0x16, 0x19, 0x00, 0x00,
  0x00, 0x14, 0x00, 0xca, 0x00, 0x00, 0x00, 0x00, 0x00, 0x00, 0x00, 0xe0,
  0x00, 0x18, 0x00, 0x00, 0x00, 0x00, 0x00, 0x00, 0x00, 0x49, 0x00, 0x00,
  0x00, 0x33, 0x00, 0x00, 0x16, 0x00, 0x00, 0x00, 0x00, 0x2d, 0x00, 0xe0,
  0x00, 0x00, 0x31, 0x00, 0x00, 0x00, 0xe2, 0xef, 0x19, 0x1f, 0x00, 0x00,
  0x00, 0x26, 0x00, 0x00, 0x1f, 0x2d, 0x00, 0x13, 0x00, 0x45, 0x00, 0x00,
  0x00, 0x00, 0x00, 0x00, 0xd9, 0xe9, 0x00, 0x00, 0x00, 0x17, 0x9f, 0x00,
  0x00, 0x00, 0xd9, 0x00, 0x00, 0x00, 0x00, 0x00, 0x00, 0x00, 0x00, 0x00,
  0xe8, 0x00, 0x00, 0xd0, 0x00, 0x00, 0x00, 0x00, 0x00, 0x00, 0x00, 0x25,
  0x00, 0x00, 0x00, 0x00, 0x00, 0x00, 0xe8, 0x00, 0x00, 0x00, 0x00, 0x00,
  0x00, 0x34, 0xd9, 0x00, 0x00, 0x00, 0x00, 0x2e, 0x00, 0xe2, 0xea, 0xcb,
  0x00, 0x00, 0x4e, 0x00, 0x00, 0x2b, 0x00, 0x00, 0x00, 0x00, 0x00, 0x00,
  0x00, 0x00, 0x00, 0xcd, 0x00, 0xf0, 0x00, 0x00, 0xe2, 0x00, 0x00, 0x00,
  0x00, 0x00, 0x00, 0x00, 0x00, 0xc2, 0x00, 0x00, 0x00, 0x9e, 0x00, 0x81,
  0x00, 0x3c, 0x00, 0x21, 0x00, 0x00, 0x00, 0x00, 0x00, 0x00, 0x25, 0x00,
  0x30, 0x9c, 0x00, 0x00, 0x00, 0x00, 0xb8, 0x00, 0x00, 0x00, 0x24, 0x00,
  0x00, 0x00, 0x00, 0x00, 0x35, 0x00, 0x00, 0x00, 0x00, 0x00, 0x00, 0x54,
  0xe1, 0x00, 0x00, 0x00, 0x7f, 0x00, 0x00, 0x50, 0x00, 0x00, 0xde, 0x00,
  0x30, 0x00, 0x00, 0x00, 0x00, 0x00, 0x00, 0x00, 0x00, 0x00, 0x00, 0x00,
  0x00, 0x00, 0x00, 0x00, 0x3c, 0x00, 0x00, 0x00, 0x00, 0xe1, 0x19, 0x00,
  0x00, 0x00, 0xe1, 0x00, 0x00, 0x00, 0xd6, 0x00, 0x00, 0x2e, 0x00, 0x00,
  0x00, 0x00, 0x00, 0x00, 0xdd, 0x19, 0x00, 0xe0, 0x00, 0x00, 0x00, 0x26,
  0x00, 0x00, 0x00, 0x00, 0x00, 0xe0, 0xda, 0x00, 0x00, 0x00, 0xac, 0x00,
  0x00, 0x00, 0x00, 0x17, 0x00, 0xbc, 0x81, 0x00, 0x00, 0x00, 0x00, 0xa0,
  0x00, 0x18, 0x00, 0x00, 0x00, 0x00, 0x00, 0x00, 0x00, 0x00, 0x4d, 0x9a,
  0x00, 0x00, 0xe5, 0xe2, 0x00, 0x00, 0xc1, 0xb9, 0x00, 0x00, 0xd1, 0x00,
  0x00, 0x00, 0x00, 0x00, 0x00, 0x00, 0x00, 0x00, 0xd5, 0x00, 0x00, 0xea,
  0x00, 0x00, 0x00, 0x00, 0x00, 0x00, 0x00, 0x00, 0x00, 0x00, 0x00, 0x00,
  0x00, 0x00, 0x00, 0xce, 0x00, 0x00, 0x00, 0x00, 0x00, 0xdf, 0x00, 0x00,
  0x00, 0x00, 0x00, 0x00, 0xee, 0xc8, 0x00, 0x00, 0x00, 0xdb, 0x00, 0x26,
  0x00, 0x00, 0x00, 0x00, 0x00, 0x00, 0x00, 0x00, 0x00, 0x00, 0xbb, 0x00,
  0x00, 0x00, 0x00, 0x22, 0x00, 0x00, 0x00, 0x00, 0x00, 0x00, 0x00, 0x00,
  0x31, 0x00, 0x00, 0x00, 0x43, 0x00, 0x00, 0x00, 0x11, 0x00, 0x45, 0x00,
  0x00, 0x00, 0xc1, 0x00, 0xcf, 0xdb, 0xd3, 0x00, 0x00, 0x00, 0x00, 0x00,
  0x00, 0x00, 0xab, 0xc9, 0x00, 0x00, 0x00, 0x00, 0xd8, 0xdc, 0xd2, 0xdb,
  0xd2, 0xea, 0x00, 0x00, 0xd9, 0x00, 0x00, 0x00, 0x00, 0x2b, 0x2d, 0x39,
  0x00, 0x00, 0x00, 0x00, 0x00, 0x00, 0x00, 0x00, 0x00, 0xd3, 0xdb, 0x27,
  0x00, 0x00, 0x00, 0x00, 0x00, 0x00, 0x33, 0x00, 0xb9, 0x00, 0x26, 0x29,
  0x00, 0xd8, 0xe1, 0xe6, 0x1b, 0x16, 0x00, 0x00, 0x00, 0x00, 0x3d, 0x00,
  0xe0, 0x00, 0x00, 0xc7, 0x00, 0x00, 0x22, 0x00, 0x00, 0x00, 0x00, 0x00,
  0x00, 0x00, 0x00, 0x00, 0x00, 0x61, 0x36, 0x00, 0x00, 0x00, 0x00, 0x00,
  0x00, 0x00, 0xc3, 0x00, 0x00, 0x00, 0x1a, 0x00, 0x1f, 0x0f, 0x00, 0x00,
  0xef, 0x00, 0x00, 0x00, 0x00, 0x00, 0x00, 0x00, 0x14, 0x1c, 0x00, 0x00,
  0x00, 0x00, 0x00, 0x00, 0x00, 0x99, 0x00, 0x81, 0x00, 0xd0, 0xb4, 0x00,
  0x00, 0x00, 0x00, 0x85, 0x00, 0x00, 0x00, 0xe0, 0xdc, 0x00, 0x00, 0x00,
  0x00, 0x00, 0x00, 0x00, 0x00, 0x00, 0x00, 0x00, 0x00, 0x00, 0x00, 0x00,
  0xc3, 0xa0, 0x00, 0x00, 0x00, 0x00, 0x1c, 0x00, 0x00, 0x55, 0x00, 0x00,
  0x00, 0x00, 0x00, 0x00, 0x00, 0x00, 0x00, 0x00, 0x00, 0x00, 0x00, 0x32,
  0x00, 0x00, 0x00, 0x17, 0x00, 0xbb, 0x00, 0x00, 0x00, 0x00, 0x00, 0x31,
  0xdf, 0x00, 0x00, 0x00, 0x00, 0x00, 0x00, 0x00, 0x00, 0x00, 0x00, 0x2d,
  0x00, 0x00, 0x00, 0x00, 0xdd, 0x00, 0x00, 0x00, 0x00, 0x00, 0x00, 0xd8,
  0x00, 0x00, 0xa1, 0x8a, 0x00, 0x00, 0x00, 0x00, 0x00, 0x00, 0x00, 0x00,
  0x00, 0x00, 0x00, 0x00, 0xc2, 0x00, 0x19, 0xc4, 0xcf, 0xce, 0x00, 0x00,
  0x00, 0x00, 0x86, 0xe8, 0x00, 0x00, 0x00, 0x00, 0xb3, 0x00, 0x00, 0x00,
  0xc3, 0x00, 0xb2, 0x93, 0x00, 0x00, 0xdf, 0x00, 0x00, 0x00, 0xe6, 0x00,
  0x00, 0x00, 0x00, 0x00, 0x00, 0x00, 0x00, 0x00, 0xbc, 0x00, 0x00, 0x00,
  0x00, 0x00, 0x00, 0x00, 0x00, 0x00, 0x9b, 0xb5, 0x00, 0x00, 0x00, 0x00,
  0x00, 0x00, 0x00, 0xba, 0xe4, 0x00, 0x00, 0x00, 0x00, 0x00, 0x00, 0x00,
  0x00, 0x00, 0x5e, 0x00, 0x00, 0x00, 0xd4, 0x00, 0xed, 0x00, 0xef, 0x00,
  0x00, 0x00, 0x00, 0x00, 0x00, 0x38, 0xcb, 0x26, 0x1d, 0x00, 0x00, 0x00,
  0x00, 0x00, 0x00, 0x00, 0x00, 0x00, 0x00, 0x00, 0x00, 0xda, 0x00, 0x00,
  0x00, 0xde, 0x00, 0x00, 0x00, 0x00, 0x00, 0x00, 0x00, 0x00, 0x00, 0x00,
  0x00, 0x00, 0x00, 0x00, 0x00, 0xf0, 0x00, 0x00, 0x00, 0xeb, 0x00, 0xeb,
  0x00, 0x00, 0x00, 0x00, 0xec, 0x00, 0x00, 0xda, 0x00, 0x00, 0x00, 0x00,
  0x00, 0x00, 0x00, 0xd5, 0x00, 0x00, 0x00, 0x00, 0x00, 0x81, 0x00, 0x00,
  0x21, 0x00, 0x00, 0x00, 0xe7, 0x00, 0x00, 0x00, 0x00, 0x00, 0x00, 0x00,
  0xdb, 0xbc, 0x00, 0x00, 0x00, 0xd4, 0x00, 0x00, 0x00, 0x00, 0x00, 0xe0,
  0xdf, 0x00, 0x00, 0x00, 0xdd, 0x00, 0x00, 0x00, 0x00, 0x26, 0x00, 0x21,
  0x00, 0x00, 0x00, 0x00, 0x1a, 0x00, 0x00, 0x00, 0x00, 0x00, 0x00, 0x00,
  0x00, 0x2f, 0x31, 0x00, 0x00, 0x1d, 0x00, 0x00, 0x00, 0x00, 0x00, 0x27,
  0x00, 0x00, 0x00, 0x00, 0x00, 0x00, 0x00, 0x00, 0x00, 0x00, 0x00, 0xe6,
  0x00, 0xdf, 0x00, 0x2b, 0x00, 0xd2, 0x00, 0xe0, 0x00, 0x00, 0x00, 0x00,
  0x00, 0x00, 0x00, 0x00, 0x00, 0x00, 0x00, 0x00, 0x00, 0xd1, 0x00, 0xec,
  0x24, 0x00, 0x2b, 0x00, 0x00, 0x30, 0x00, 0x00, 0x00, 0x00, 0x00, 0x00,
  0x15, 0xc7, 0xed, 0x00, 0x00, 0x00, 0x00, 0xef, 0x16, 0x00, 0x26, 0x00,
  0x00, 0x00, 0x00, 0x18, 0x00, 0x00, 0xdd, 0xeb, 0x00, 0x00, 0x00, 0x00,
  0x00, 0x00, 0x00, 0x00, 0x2b, 0x00, 0xd3, 0x00, 0x00, 0x00, 0x00, 0x00,
  0x00, 0x27, 0x00, 0x00, 0x00, 0xe3, 0x10, 0x00, 0x27, 0x00, 0xbe, 0x00,
  0x1d, 0x00, 0x00, 0x22, 0x00, 0x00, 0x00, 0x12, 0x00, 0x00, 0x00, 0x00,
  0x00, 0x00, 0x00, 0x00, 0x00, 0x00, 0x00, 0x00, 0x00, 0x00, 0x00, 0x00,
  0x00, 0x00, 0x00, 0xee, 0x00, 0x00, 0x00, 0x00, 0x00, 0x00, 0x00, 0x00,
  0x00, 0x00, 0x00, 0x00, 0x00, 0x00, 0x00, 0x00, 0x30, 0xc1, 0x00, 0x00,
  0x00, 0x00, 0xbf, 0x00, 0x00, 0x00, 0x00, 0x00, 0x15, 0x00, 0x00, 0x00,
  0x00, 0x00, 0x00, 0xef, 0x00, 0x2d, 0x00, 0x00, 0x00, 0xce, 0xe0, 0x00,
  0xe9, 0xcb, 0xa7, 0x00, 0x00, 0x00, 0x00, 0x12, 0x00, 0x00, 0xc6, 0xec,
  0x00, 0x00, 0x00, 0x00, 0xe5, 0x00, 0xde, 0x00, 0x00, 0x00, 0xee, 0x00,
  0x00, 0x00, 0x00, 0x00, 0x00, 0x00, 0x00, 0x00, 0x00, 0x00, 0x00, 0x00,
  0x00, 0x00, 0x00, 0xe2, 0xf1, 0x1e, 0x1f, 0x00, 0x00, 0xc7, 0x00, 0x00,
  0x00, 0x00, 0x00, 0x00, 0x00, 0x00, 0x00, 0xe5, 0x00, 0x00, 0x00, 0x00,
  0x00, 0x11, 0x00, 0x00, 0x00, 0x00, 0x00, 0x00, 0xe8, 0x00, 0x00, 0x00,
  0x00, 0xe6, 0x00, 0x00, 0x00, 0x00, 0x00, 0x00, 0x00, 0x00, 0x00, 0x00,
  0xca, 0x00, 0x00, 0x00, 0x00, 0x00, 0xda, 0xca, 0x00, 0x00, 0x00, 0x00,
  0x00, 0x00, 0x00, 0x00, 0x00, 0x00, 0x00, 0x00, 0x00, 0x00, 0x00, 0x00,
  0x00, 0x00, 0x00, 0x00, 0x10, 0x00, 0x00, 0x00, 0x00, 0x00, 0xe0, 0x00,
  0x00, 0x18, 0x00, 0x00, 0x00, 0x00, 0x00, 0x00, 0x00, 0x00, 0x00, 0x00,
  0xe7, 0xed, 0x00, 0x00, 0x00, 0x00, 0x00, 0x00, 0x00, 0x00, 0x00, 0x00,
  0xec, 0xc6, 0x00, 0x00, 0xe3, 0x00, 0x18, 0x00, 0x00, 0x00, 0xbc, 0x00,
  0x16, 0x00, 0x18, 0x1c, 0x00, 0x00, 0x00, 0x00, 0x2c, 0xcb, 0x00, 0x00,
  0x0d, 0x00, 0x00, 0x00, 0x00, 0x00, 0x00, 0x00, 0x00, 0x00, 0x1c, 0x20,
  0x27, 0x00, 0x00, 0x00, 0x00, 0x00, 0x00, 0x00, 0xdb, 0x00, 0x00, 0x00,
  0x00, 0xcb, 0x00, 0x00, 0x00, 0x00, 0x00, 0x00, 0x00, 0x00, 0x00, 0x00,
  0x00, 0x00, 0x00, 0x00, 0x00, 0x00, 0x00, 0x00, 0x00, 0x00, 0x00, 0x00,
  0x00, 0x00, 0x00, 0x00, 0x1c, 0x00, 0xf4, 0x00, 0x00, 0x00, 0x00, 0x00,
  0x00, 0x00, 0x30, 0x00, 0x00, 0xdf, 0x81, 0xcf, 0xf0, 0x00, 0x00, 0x00,
  0xdc, 0x00, 0x00, 0x00, 0x00, 0x9b, 0x00, 0x30, 0x00, 0x00, 0xd9, 0x00,
  0x00, 0x00, 0x00, 0x00, 0x00, 0xd9, 0x00, 0x00, 0x40, 0xea, 0x37, 0x2f,
  0x00, 0x00, 0xb2, 0x00, 0x0c, 0x00, 0x00, 0x00, 0x00, 0x16, 0x00, 0x00,
  0x00, 0x00, 0x00, 0x00, 0x00, 0x00, 0x10, 0x00, 0x00, 0x00, 0xd1, 0x00,
  0x00, 0x9f, 0x00, 0xc1, 0x00, 0x17, 0xe1, 0x00, 0xd9, 0x18, 0x00, 0x00,
  0x00, 0xde, 0x00, 0x12, 0x00, 0x00, 0x00, 0xc5, 0xe0, 0x00, 0x00, 0x8f,
  0xdc, 0x0f, 0x00, 0x00, 0x00, 0x00, 0x00, 0x1b, 0xde, 0x13, 0x8e, 0x00,
  0xa3, 0x00, 0x00, 0xc2, 0x00, 0x00, 0x00, 0xd4, 0x00, 0x81, 0xbd, 0x00,
  0xe8, 0x00, 0x00, 0x00, 0x00, 0xa7, 0x1e, 0x18, 0xda, 0x00, 0xd5, 0x00,
  0x00, 0x00, 0x37, 0x2b, 0x00, 0x14, 0x00, 0x00, 0x00, 0x00, 0xe7, 0x21,
  0x22, 0x00, 0x00, 0x00, 0x20, 0x00, 0x27, 0x00, 0x00, 0x11, 0x1a, 0x00,
  0x00, 0x00, 0x00, 0x00, 0x00, 0x43, 0x00, 0x00, 0x00, 0xeb, 0x00, 0x00,
  0xe8, 0x00, 0x00, 0xce, 0x00, 0x00, 0x00, 0x34, 0x00, 0xaa, 0x00, 0xe3,
  0xbc, 0x00, 0x00, 0x00, 0x00, 0x00, 0xdc, 0xd4, 0x00, 0x00, 0xd1, 0x00,
  0xe1, 0xb9, 0x00, 0x00, 0x00, 0x00, 0xd2, 0x00, 0xc3, 0x00, 0x27, 0x00,
  0xe8, 0x00, 0x00, 0xd4, 0xdb, 0x00, 0x00, 0xd6, 0xec, 0x00, 0x00, 0xdb,
  0x00, 0x00, 0x1e, 0x00, 0x00, 0x00, 0x00, 0x00, 0x00, 0x00, 0x00, 0x00,
  0x00, 0x00, 0x00, 0x00, 0xf1, 0x00, 0x00, 0xe0, 0x00, 0x00, 0x14, 0x00,
  0x00, 0x00, 0x00, 0xec, 0xed, 0x00, 0xb1, 0xe1, 0x00, 0x00, 0x00, 0x00,
  0xe2, 0x16, 0x00, 0x00, 0x00, 0x00, 0x00, 0xe1, 0x1d, 0x00, 0x00, 0x00,
  0xdd, 0x00, 0x00, 0x00, 0x00, 0x00, 0x00, 0xd9, 0xe5, 0x00, 0x00, 0x1c,
  0x00, 0x00, 0x00, 0x00, 0x00, 0x3b, 0x00, 0x00, 0x00, 0x00, 0xe1, 0x00,
  0xe0, 0x00, 0x00, 0x00, 0x00, 0x00, 0x00, 0x00, 0x00, 0x2f, 0x00, 0x00,
  0x9e, 0x00, 0x00, 0x00, 0x00, 0x00, 0x00, 0x00, 0x00, 0x00, 0x00, 0x00,
  0x00, 0x00, 0x00, 0x00, 0x00, 0x31, 0x0e, 0x00, 0x00, 0x00, 0x4e, 0x00,
  0x00, 0x00, 0x00, 0x00, 0x18, 0x00, 0x00, 0x13, 0x00, 0x00, 0x00, 0xb1,
  0x00, 0x00, 0x00, 0x00, 0xc8, 0xbf, 0x00, 0x00, 0x00, 0x3b, 0x18, 0x00,
  0x00, 0x00, 0x00, 0x00, 0x00, 0x00, 0x00, 0x00, 0x00, 0x22, 0x00, 0x1b,
  0x1a, 0x00, 0x00, 0x00, 0x00, 0x00, 0x00, 0x00, 0x00, 0x00, 0x00, 0x00,
  0x00, 0x00, 0x00, 0x00, 0x00, 0x2b, 0x00, 0x00, 0x00, 0x13, 0x00, 0x00,
  0x1a, 0xab, 0x00, 0x00, 0x00, 0x00, 0x00, 0x00, 0x00, 0x00, 0x15, 0x00,
  0x00, 0x00, 0xc0, 0x00, 0x00, 0x1f, 0x00, 0x00, 0x00, 0x00, 0x00, 0x00,
  0x00, 0x00, 0x00, 0x00, 0x00, 0x00, 0x00, 0x00, 0x00, 0x2a, 0x00, 0x2f,
  0x00, 0x00, 0x00, 0x00, 0x11, 0x00, 0x00, 0x00, 0xe5, 0x00, 0x00, 0xba,
  0x00, 0x49, 0x00, 0x00, 0x00, 0x00, 0x10, 0x58, 0x00, 0x00, 0x00, 0x00,
  0xe2, 0x23, 0x00, 0x00, 0x00, 0x51, 0x00, 0x00, 0x00, 0xd8, 0x00, 0x00,
  0x00, 0x00, 0x00, 0x00, 0x17, 0x00, 0x00, 0xd8, 0x00, 0x2d, 0x00, 0x00,
  0x22, 0x00, 0x1d, 0x28, 0x00, 0x00, 0x00, 0x00, 0x00, 0x00, 0x00, 0x00,
  0x00, 0x00, 0x00, 0x00, 0x00, 0x00, 0x00, 0x00, 0x00, 0x00, 0x00, 0xc0,
  0x00, 0xcb, 0x00, 0xa9, 0x00, 0x00, 0x00, 0x00, 0x00, 0x00, 0x00, 0xd2,
  0xd1, 0x00, 0xec, 0x00, 0x00, 0x00, 0x00, 0x00, 0xe0, 0x00, 0x00, 0x00,
  0x00, 0x13, 0xc4, 0x00, 0x00, 0x00, 0x00, 0x00, 0x1f, 0xce, 0x12, 0x00,
  0x00, 0x00, 0x4e, 0x00, 0xc8, 0x00, 0x00, 0x00, 0xdf, 0x81, 0x00, 0x1b,
  0x00, 0x00, 0xec, 0x00, 0xd0, 0x00, 0x00, 0x00, 0x00, 0x00, 0x00, 0x00,
  0x00, 0x00, 0x00, 0x00, 0x00, 0x00, 0x00, 0x00, 0x00, 0x00, 0xe3, 0x00,
  0xe6, 0x00, 0x00, 0x00, 0x00, 0x00, 0x00, 0x00, 0x00, 0x00, 0x00, 0x00,
  0x00, 0x00, 0x00, 0x00, 0x00, 0x00, 0x00, 0x23, 0x00, 0x00, 0x00, 0x00,
  0x00, 0xac, 0x00, 0x00, 0x00, 0x00, 0x00, 0xe7, 0x00, 0x00, 0x00, 0x00,
  0x00, 0x00, 0x00, 0x37, 0x00, 0xf0, 0x00, 0x00, 0x00, 0x00, 0xe1, 0x00,
  0x21, 0x00, 0x00, 0x00, 0x10, 0x00, 0x00, 0x00, 0x45, 0xbd, 0x00, 0x00,
  0x00, 0x1b, 0x00, 0x00, 0x00, 0x00, 0x1b, 0x00, 0x00, 0xdf, 0x00, 0x24,
  0x00, 0x00, 0x00, 0x00, 0x00, 0x00, 0x00, 0x00, 0x00, 0x00, 0x00, 0x00,
  0x00, 0x00, 0x00, 0x00, 0x4a, 0xce, 0x00, 0x00, 0x00, 0x00, 0xb8, 0x00,
  0x00, 0x00, 0x39, 0x0f, 0x14, 0x00, 0x00, 0x00, 0x00, 0x00, 0x00, 0x00,
  0x00, 0x00, 0x00, 0x00, 0x00, 0x00, 0x00, 0xe7, 0xdf, 0x00, 0x00, 0x00,
  0xd9, 0x00, 0x00, 0x00, 0x00, 0x00, 0x00, 0x00, 0x00, 0x00, 0x18, 0x00,
  0x00, 0x00, 0x00, 0x00, 0x00, 0x45, 0x00, 0x00, 0x00, 0x00, 0x38, 0x25,
  0x00, 0x0b, 0x00, 0x0e, 0x00, 0x00, 0x00, 0x00, 0x00, 0x00, 0xed, 0x00,
  0x00, 0x00, 0x00, 0x00, 0x00, 0x00, 0xe1, 0x23, 0x1f, 0x00, 0x29, 0x00,
  0xc9, 0x00, 0x00, 0x00, 0x00, 0x00, 0x00, 0x00, 0x00, 0x0f, 0x00, 0x00,
  0x0f, 0x16, 0xf1, 0x00, 0x00, 0xcc, 0x00, 0x00, 0x00, 0x00, 0x00, 0x1d,
  0x00, 0x00, 0x00, 0xf5, 0x00, 0x00, 0x00, 0x00, 0x0f, 0x00, 0x00, 0x00,
  0x0c, 0xbd, 0x00, 0x00, 0x00, 0x00, 0x0b, 0x00, 0x00, 0x00, 0x00, 0x00,
  0xee, 0xe7, 0x00, 0x00, 0x00, 0x00, 0x00, 0xf0, 0x1f, 0x00, 0x00, 0x18,
  0x00, 0x00, 0xe5, 0x00, 0x00, 0x16, 0x00, 0x00, 0xf7, 0x23, 0xeb, 0x00,
  0x00, 0x00, 0x00, 0x00, 0x00, 0x00, 0x00, 0x00, 0x00, 0x00, 0x00, 0x00,
  0xf7, 0x00, 0xde, 0x00, 0x00, 0x00, 0x00, 0x00, 0xf0, 0xe7, 0x00, 0x00,
  0x00, 0xc3, 0x00, 0x2b, 0x00, 0x00, 0x00, 0xe6, 0x00, 0x00, 0x0f, 0x00,
  0x14, 0x0c, 0xbd, 0x00, 0x1c, 0xb9, 0x00, 0x00, 0x00, 0x00, 0x00, 0x00,
  0x00, 0x17, 0x0b, 0x00, 0x00, 0x00, 0x00, 0x00, 0x23, 0xd3, 0x00, 0x00,
  0x00, 0xc6, 0x00, 0xdc, 0x00, 0x00, 0xee, 0x00, 0x00, 0x00, 0x00, 0x00,
  0x00, 0x00, 0xf1, 0x00, 0xe9, 0x00, 0x00, 0xe0, 0xe9, 0x00, 0x00, 0x00,
  0x00, 0xf1, 0x00, 0x00, 0x00, 0xe6, 0x00, 0xf2, 0xe3, 0x00, 0xeb, 0xf7,
  0x00, 0x00, 0x00, 0x1f, 0x00, 0x00, 0x00, 0x00, 0x00, 0x00, 0x00, 0x00,
  0x00, 0x00, 0x81, 0x00, 0x00, 0x00, 0x00, 0x00, 0x00, 0xf6, 0x00, 0x00,
  0x4a, 0x00, 0x00, 0x0f, 0xef, 0xea, 0x00, 0x00, 0xf1, 0x00, 0x0b, 0x00,
  0x00, 0x00, 0x00, 0x00, 0x00, 0xd3, 0x00, 0x00, 0x00, 0x00, 0x00, 0x00,
  0x2b, 0x11, 0x2a, 0x00, 0x0d, 0x00, 0x00, 0x00, 0x16, 0xdd, 0x00, 0x1e,
  0x0b, 0xbe, 0x00, 0x00, 0xe7, 0x00, 0x00, 0x00, 0x00, 0x00, 0x00, 0xcd,
  0x00, 0x00, 0x00, 0x00, 0x00, 0xf0, 0x00, 0xb9, 0x00, 0x00, 0x8b, 0x00,
  0x9c, 0x81, 0xa5, 0xee, 0x96, 0xe0, 0x43, 0x00, 0x00, 0x00, 0x8d, 0x00,
  0x1a, 0x00, 0x12, 0x00, 0x00, 0x00, 0x00, 0x00, 0x00, 0x00, 0x00, 0x00,
  0x00, 0x0e, 0xd2, 0x00, 0xf1, 0x00, 0xee, 0x00, 0x00, 0x00, 0x1c, 0x00,
  0x00, 0x00, 0x00, 0x28, 0x00, 0x0e, 0x00, 0x00, 0x1a, 0x00, 0x15, 0x00,
  0x00, 0x00, 0x00, 0x00, 0x10, 0x00, 0x00, 0xed, 0x00, 0x0e, 0x00, 0x19,
  0xe2, 0xda, 0x00, 0x00, 0x00, 0x00, 0x00, 0x00, 0xd7, 0xf4, 0x00, 0x00,
  0x15, 0x00, 0xf1, 0xee, 0x00, 0x00, 0xa0, 0xcd, 0x00, 0xa3, 0x00, 0x00,
  0x00, 0x00, 0x00, 0xd7, 0xc4, 0x00, 0x1f, 0xd7, 0x00, 0x00, 0x00, 0xe2,
  0x00, 0x00, 0x00, 0x00, 0x00, 0x00, 0x00, 0x00, 0x00, 0xea, 0x00, 0xae,
  0xed, 0x00, 0xe1, 0x00, 0x00, 0x00, 0x00, 0xcd, 0x93, 0x00, 0x00, 0xc5,
  0x00, 0x17, 0x18, 0x00, 0x00, 0x00, 0x00, 0x00, 0xe9, 0x00, 0xe2, 0xc8,
  0x00, 0x00, 0x00, 0x00, 0xcd, 0x2d, 0x00, 0x42, 0x00, 0x00, 0xe5, 0x00,
  0xdb, 0x00, 0x00, 0x00, 0x00, 0x19, 0xd0, 0x00, 0xeb, 0x00, 0x00, 0xe2,
  0x00, 0x00, 0x00, 0x00, 0xee, 0x00, 0xde, 0xe8, 0x14, 0x00, 0x00, 0xe5,
  0xf0, 0x25, 0xe6, 0x00, 0xe5, 0x00, 0x00, 0x00, 0x00, 0x11, 0x1a, 0x00,
  0x00, 0x00, 0x00, 0x00, 0x00, 0x00, 0x00, 0x00, 0x00, 0x00, 0x00, 0x00,
  0x00, 0x2a, 0x00, 0x00, 0x00, 0x28, 0x20, 0x00, 0x00, 0x00, 0x41, 0x00,
  0x00, 0x00, 0x00, 0x14, 0x00, 0x10, 0x33, 0x00, 0x00, 0x00, 0x00, 0xda,
  0x00, 0x00, 0x00, 0x00, 0x00, 0x00, 0x00, 0x00, 0x00, 0x25, 0x00, 0x00,
  0x00, 0x3b, 0x12, 0x00, 0x00, 0x00, 0x00, 0x00, 0x00, 0x00, 0x00, 0x00,
  0x00, 0x00, 0x00, 0x15, 0x00, 0x00, 0x00, 0x00, 0x00, 0x00, 0x17, 0x00,
  0x00, 0x0c, 0xdc, 0x00, 0x00, 0x1a, 0x00, 0x17, 0x00, 0x00, 0x00, 0x00,
  0xe7, 0x00, 0x00, 0x00, 0x00, 0x18, 0xe7, 0xf0, 0x00, 0x00, 0x00, 0x00,
  0x00, 0x00, 0x00, 0xe6, 0x00, 0x00, 0x7f, 0x00, 0x00, 0x00, 0x00, 0x00,
  0x00, 0x00, 0x00, 0x00, 0x00, 0x00, 0xc6, 0x00, 0x00, 0x2a, 0x00, 0x29,
  0xe3, 0x00, 0xde, 0xc6, 0x00, 0x00, 0x00, 0x00, 0x00, 0x00, 0x00, 0x00,
  0x00, 0x00, 0x51, 0x00, 0x00, 0x00, 0x00, 0x00, 0x00, 0x00, 0xd4, 0x00,
  0x00, 0x51, 0x00, 0xd3, 0xde, 0x00, 0x00, 0x38, 0xc0, 0x00, 0x00, 0xe7,
  0xdb, 0x00, 0x18, 0x00, 0xdd, 0x00, 0xd5, 0xca, 0x00, 0x00, 0x16, 0x00,
  0x00, 0xeb, 0xe9, 0x00, 0x00, 0x00, 0xd9, 0xcd, 0x00, 0x32, 0x00, 0x00,
  0x00, 0x00, 0x00, 0x00, 0x00, 0x00, 0x00, 0x00, 0x00, 0x00, 0xdc, 0x00,
  0x00, 0x00, 0xc7, 0xce, 0x00, 0x00, 0x00, 0x00, 0xc9, 0x00, 0x00, 0x00,
  0x00, 0x00, 0x00, 0x00, 0x00, 0xf1, 0x00, 0x00, 0x00, 0x00, 0x00, 0x00,
  0x00, 0x25, 0x16, 0x39, 0x1a, 0x00, 0x00, 0x00, 0x00, 0x00, 0x00, 0x18,
  0x00, 0x00, 0x2a, 0x14, 0x00, 0x00, 0x00, 0x00, 0x00, 0x00, 0x00, 0x30,
  0x16, 0x00, 0x00, 0x00, 0x00, 0xaf, 0x00, 0x00, 0x00, 0x00, 0x00, 0x00,
  0x00, 0x00, 0x00, 0x00, 0x18, 0xee, 0x00, 0x2a, 0x00, 0x00, 0x3f, 0x00,
  0x00, 0x00, 0x23, 0x00, 0x00, 0x00, 0x00, 0x00, 0x00, 0x24, 0x00, 0x00,
  0x00, 0x00, 0x62, 0x00, 0x00, 0x00, 0x00, 0x00, 0x00, 0x00, 0x00, 0x00,
  0x00, 0x00, 0xd5, 0xbc, 0x00, 0x00, 0x00, 0x00, 0x00, 0x00, 0x00, 0x00,
  0x00, 0x00, 0x00, 0x00, 0x00, 0x00, 0x00, 0x00, 0x00, 0x00, 0x00, 0x00,
  0x00, 0x00, 0x00, 0x00, 0x00, 0x00, 0x00, 0x00, 0x00, 0x00, 0xbc, 0x00,
  0x00, 0x00, 0x00, 0x1a, 0x00, 0x44, 0x34, 0x00, 0x00, 0x00, 0x13, 0x2e,
  0x00, 0xc8, 0x11, 0x00, 0x00, 0x9e, 0x00, 0x00, 0x51, 0x00, 0x00, 0x00,
  0x00, 0x00, 0x19, 0x00, 0x00, 0x00, 0x00, 0x00, 0x00, 0x00, 0x2d, 0x32,
  0x00, 0x00, 0x20, 0xbd, 0x00, 0x00, 0x00, 0x00, 0x00, 0x1d, 0x00, 0x00,
  0x00, 0x00, 0x00, 0x00, 0x00, 0x00, 0x00, 0x00, 0xc5, 0x00, 0x00, 0x00,
  0x00, 0x00, 0x00, 0x00, 0x00, 0x00, 0x00, 0x00, 0xd2, 0x00, 0x00, 0x00,
  0x00, 0x00, 0x00, 0x00, 0x00, 0x10, 0x00, 0x00, 0x00, 0x00, 0xde, 0x00,
  0xe0, 0x00, 0x00, 0xed, 0xc0, 0x00, 0x00, 0x00, 0x00, 0x00, 0x00, 0x00,
  0xd3, 0x00, 0x00, 0x00, 0x00, 0x00, 0x00, 0x00, 0xe0, 0x00, 0x00, 0x00,
  0x00, 0x00, 0x00, 0xee, 0x00, 0x00, 0x00, 0x00, 0x00, 0x00, 0xdf, 0x00,
  0xdb, 0x00, 0x00, 0x00, 0x00, 0x00, 0x00, 0xee, 0x00, 0x00, 0x00, 0xe1,
  0x00, 0x00, 0x00, 0x00, 0x00, 0x00, 0x00, 0x00, 0xe6, 0x00, 0x00, 0x00,
  0xd3, 0x00, 0x00, 0x00, 0x00, 0xcb, 0x00, 0x00, 0x00, 0x00, 0x00, 0xe1,
  0x00, 0x00, 0xda, 0x00, 0x00, 0x00, 0x00, 0x00, 0x00, 0x00, 0x00, 0x00,
  0x00, 0x00, 0x00, 0x00, 0x00, 0x00, 0x00, 0x00, 0x00, 0x00, 0x00, 0x00,
  0x1f, 0x2e, 0x13, 0x00, 0x00, 0x26, 0x00, 0x00, 0x00, 0x28, 0x2b, 0x00,
  0x14, 0x00, 0x39, 0x00, 0x00, 0x26, 0x00, 0x00, 0x00, 0x27, 0x00, 0x0f,
  0x00, 0x00, 0x36, 0x00, 0xea, 0xa5, 0x00, 0x00, 0x00, 0xd6, 0xd7, 0x00,
  0x00, 0x00, 0x00, 0x00, 0x3d, 0x00, 0xc7, 0x00, 0xe1, 0x81, 0x00, 0x00,
  0x00, 0x19, 0x00, 0x8e, 0x00, 0xbc, 0xd9, 0x00, 0x26, 0xd5, 0x00, 0x00,
  0x00, 0x00, 0x14, 0x00, 0x43, 0x00, 0x00, 0x0f, 0x00, 0x16, 0x00, 0x00,
  0x00, 0x1d, 0x16, 0x00, 0xf0, 0xbd, 0x00, 0x25, 0xf0, 0x00, 0x00, 0xbb,
  0x00, 0x2b, 0x00, 0x00, 0x00, 0x00, 0x00, 0x14, 0x00, 0xd7, 0x2e, 0x00,
  0x20, 0x00, 0x00, 0x00, 0x00, 0x00, 0x00, 0x23, 0x4a, 0xc2, 0x00, 0x00,
  0x00, 0xab, 0x00, 0xe8, 0x00, 0x23, 0xe6, 0x00, 0x00, 0x00, 0x00, 0x00,
  0x00, 0xce, 0x00, 0x00, 0x00, 0x00, 0xc8, 0x00, 0x00, 0x00, 0x00, 0x00,
  0x00, 0xac, 0x00, 0x00, 0x1a, 0xe0, 0x00, 0x2f, 0x00, 0x00, 0x00, 0xa9,
  0x00, 0x25, 0x00, 0xe9, 0x00, 0x00, 0x00, 0x00, 0x1b, 0x00, 0xce, 0x00,
  0x00, 0xd2, 0x00, 0xe4, 0x00, 0x00, 0xcc, 0x00, 0x00, 0x00, 0xca, 0x00,
  0x00, 0x00, 0xe1, 0x00, 0x00, 0x1e, 0x00, 0x00, 0x00, 0x00, 0x00, 0x00,
  0x00, 0x00, 0x00, 0x00, 0x00, 0x00, 0x00, 0x00, 0x00, 0x00, 0x00, 0x00,
  0x00, 0x00, 0x00, 0x00, 0x00, 0x00, 0x00, 0x00, 0x00, 0x00, 0xcb, 0x00,
  0x00, 0x00, 0x3e, 0x00, 0x00, 0x00, 0x47, 0x00, 0x00, 0x48, 0x00, 0x00,
  0x00, 0x00, 0x26, 0x00, 0xe4, 0x00, 0x00, 0x00, 0x00, 0x00, 0x00, 0x00,
  0x00, 0x00, 0x00, 0x16, 0x38, 0x00, 0x00, 0x00, 0x16, 0x00, 0x00, 0x00,
  0x00, 0x1f, 0x00, 0x00, 0x00, 0x2a, 0x15, 0x3d, 0x00, 0x00, 0x00, 0x00,
  0x11, 0x00, 0x00, 0x7f, 0x00, 0x00, 0x00, 0x00, 0x00, 0x00, 0x00, 0x00,
  0x00, 0x00, 0xbb, 0xc5, 0x00, 0x00, 0x00, 0xb0, 0x00, 0x00, 0x00, 0x00,
  0x00, 0x00, 0xeb, 0x00, 0x22, 0x00, 0x14, 0x00, 0x00, 0x00, 0x34, 0x00,
  0x00, 0x00, 0x00, 0x00, 0xdc, 0x00, 0x00, 0xdb, 0x00, 0xd1, 0xc5, 0x00,
  0x00, 0x17, 0x00, 0x00, 0x00, 0x00, 0x00, 0x00, 0x00, 0x00, 0x00, 0x19,
  0xef, 0x00, 0x00, 0x00, 0x00, 0x00, 0x35, 0x24, 0x00, 0x00, 0x00, 0x00,
  0x00, 0x00, 0x00, 0x00, 0x00, 0xe9, 0x00, 0x00, 0x00, 0x00, 0x00, 0x24,
  0x00, 0x00, 0x23, 0x00, 0xeb, 0x00, 0x00, 0x00, 0x00, 0x00, 0x00, 0x00,
  0x00, 0x00, 0x00, 0x00, 0x00, 0x00, 0x00, 0x00, 0x00, 0x3a, 0x2d, 0x00,
  0x00, 0x00, 0xb7, 0x00, 0x00, 0x00, 0x22, 0x00, 0x00, 0x00, 0x00, 0x00,
  0xdd, 0x00, 0xd4, 0xde, 0x00, 0x00, 0x00, 0x00, 0xd2, 0x00, 0x23, 0x4a,
  0x00, 0x00, 0xd1, 0x00, 0xd1, 0x00, 0x00, 0x00, 0x00, 0x00, 0x00, 0xdc,
  0x00, 0xf1, 0x40, 0x00, 0x32, 0x55, 0x00, 0xe4, 0x11, 0x00, 0x00, 0x00,
  0x00, 0x69, 0x00, 0x00, 0xc5, 0xc4, 0x00, 0x00, 0x63, 0x00, 0x00, 0x37,
  0x00, 0x00, 0x00, 0x00, 0x00, 0x00, 0x00, 0x00, 0x00, 0x00, 0x00, 0xe0,
  0xa6, 0x2f, 0xc8, 0x00, 0x00, 0x00, 0x00, 0x3e, 0x00, 0x00, 0x00, 0x00,
  0x00, 0x00, 0x00, 0x00, 0x00, 0x00, 0x00, 0x00, 0x00, 0x00, 0x00, 0x00,
  0x00, 0x00, 0x00, 0x00, 0x00, 0x00, 0x00, 0x1a, 0x00, 0x39, 0x33, 0x00,
  0x00, 0x00, 0x00, 0xd3, 0x00, 0x00, 0x22, 0xe0, 0x00, 0x00, 0x00, 0xba,
  0x00, 0x00, 0x00, 0x00, 0x00, 0x00, 0x00, 0x00, 0x00, 0x00, 0x00, 0x00,
  0x00, 0x00, 0x00, 0x00, 0xe7, 0x00, 0x00, 0xc1, 0x00, 0x00, 0x00, 0xe7,
  0x26, 0x00, 0x00, 0x00, 0xe8, 0x00, 0x00, 0x00, 0x36, 0x00, 0x00, 0x00,
  0x00, 0x00, 0x00, 0x00, 0x00, 0x00, 0xe7, 0x00, 0x19, 0x00, 0x30, 0x00,
  0x00, 0x00, 0x00, 0x00, 0x00, 0x00, 0x00, 0x00, 0x00, 0x00, 0x00, 0x00,
  0x00, 0x00, 0x00, 0x00, 0x00, 0xe7, 0x13, 0xbc, 0x00, 0x23, 0x00, 0x00,
  0x00, 0x00, 0x00, 0xb2, 0x00, 0x35, 0x81, 0x00, 0x24, 0x00, 0x00, 0x00,
  0xee, 0x47, 0x00, 0xb5, 0x00, 0x00, 0x6e, 0x00, 0x00, 0x11, 0x00, 0x1f,
  0x13, 0x12, 0x00, 0x00, 0x15, 0x00, 0x00, 0x00, 0x00, 0x00, 0x00, 0xa5,
  0x13, 0x18, 0xc9, 0x00, 0x00, 0xc6, 0xdf, 0x00, 0x00, 0x00, 0x00, 0x00,
  0x00, 0x00, 0x29, 0x00, 0x13, 0x21, 0x00, 0x00, 0x00, 0x00, 0x00, 0x00,
  0x00, 0x00, 0x00, 0x1d, 0x00, 0x00, 0xe7, 0x00, 0x00, 0x39, 0xdb, 0x00,
  0x00, 0x00, 0x00, 0x00, 0x1d, 0x00, 0x1c, 0x19, 0x00, 0x00, 0x00, 0x00,
  0x14, 0x56, 0xc0, 0x00, 0xc2, 0x00, 0x00, 0xde, 0x00, 0x00, 0x00, 0xcf,
  0x00, 0x1c, 0xe7, 0x00, 0xf1, 0x00, 0x00, 0x00, 0x46, 0x00, 0xde, 0x00,
  0xb9, 0x00, 0xb4, 0x00, 0x00, 0x1c, 0x42, 0x00, 0xda, 0xeb, 0x00, 0x00,
  0xe7, 0x00, 0x14, 0x00, 0x10, 0x00, 0xd6, 0xe0, 0x00, 0x00, 0x00, 0x00,
  0x13, 0x1d, 0x00, 0xd5, 0x00, 0x00, 0x00, 0x16, 0xcc, 0xde, 0xc5, 0x00,
  0x00, 0x00, 0x32, 0x00, 0x00, 0x00, 0xe2, 0x00, 0x00, 0xcc, 0xdd, 0x00,
  0xdb, 0x00, 0x00, 0x00, 0x00, 0x00, 0x00, 0x00, 0xe4, 0x00, 0x00, 0x00,
  0xe7, 0x00, 0x00, 0x00, 0xd6, 0x00, 0xd5, 0x00, 0x00, 0x00, 0xab, 0xcf,
  0xeb, 0x00, 0x00, 0x00, 0x00, 0xd4, 0x00, 0xbb, 0x00, 0x00, 0x37, 0x00,
  0x00, 0x00, 0x00, 0x00, 0xeb, 0x00, 0x00, 0x00, 0xc6, 0x00, 0x00, 0x00,
  0x00, 0x00, 0x00, 0x00, 0x00, 0x00, 0xd9, 0x00, 0x00, 0x00, 0x00, 0x00,
  0x00, 0x00, 0x00, 0x00, 0x00, 0x00, 0x00, 0x00, 0x00, 0x00, 0x00, 0x00,
  0x00, 0xd0, 0x00, 0x00, 0x00, 0x00, 0x00, 0x00, 0xe2, 0x00, 0x00, 0x00,
  0x00, 0xe8, 0x00, 0x00, 0xea, 0x00, 0xef, 0x00, 0x00, 0x00, 0xca, 0x00,
  0xb6, 0x00, 0x00, 0xda, 0x00, 0x00, 0x00, 0xee, 0x00, 0x00, 0x00, 0xe8,
  0xcf, 0xd7, 0xdd, 0xbb, 0x00, 0x00, 0x00, 0x00, 0x00, 0x00, 0x00, 0xe0,
  0xde, 0x00, 0x00, 0xe5, 0x00, 0x00, 0x1b, 0x16, 0x00, 0x00, 0xe8, 0x00,
  0x00, 0x00, 0xd2, 0x0f, 0x00, 0x1c, 0x00, 0x00, 0x0f, 0x00, 0x00, 0x00,
  0x00, 0x00, 0x00, 0x00, 0x00, 0xee, 0x20, 0x00, 0x00, 0x00, 0x00, 0x11,
  0xe9, 0x1f, 0x00, 0x00, 0x00, 0x00, 0x00, 0x00, 0x00, 0x00, 0xdb, 0x00,
  0x00, 0x00, 0x00, 0x00, 0x00, 0x00, 0x00, 0x00, 0x00, 0x00, 0x00, 0x00,
  0x00, 0xeb, 0x00, 0x00, 0x00, 0xae, 0x15, 0x00, 0x00, 0x00, 0x00, 0x00,
  0x00, 0x00, 0x00, 0x00, 0x00, 0x00, 0x17, 0x00, 0x00, 0x00, 0x3d, 0x29,
  0x25, 0xf2, 0x00, 0xe6, 0x0f, 0x00, 0x00, 0x00, 0x00, 0x11, 0x00, 0x58,
  0x00, 0xc8, 0x00, 0xe9, 0x3a, 0x00, 0x00, 0x00, 0x00, 0x00, 0xd8, 0x1a,
  0x3d, 0x00, 0x21, 0x00, 0x00, 0x00, 0xea, 0x00, 0x00, 0x1f, 0x00, 0x00,
  0x00, 0x00, 0x00, 0x00, 0x00, 0x00, 0xd0, 0x00, 0x00, 0x00, 0x00, 0x47,
  0x00, 0x00, 0x0e, 0x00, 0x00, 0x00, 0xdf, 0x00, 0x00, 0x00, 0x00, 0x00,
  0x00, 0x00, 0x00, 0x00, 0x00, 0x00, 0x00, 0x00, 0x00, 0x00, 0x00, 0x00,
  0x00, 0xee, 0x00, 0x00, 0x00, 0x00, 0x00, 0x00, 0x00, 0x11, 0x18, 0x36,
  0x00, 0x2d, 0xd8, 0x00, 0x20, 0x00, 0x18, 0x00, 0x12, 0xca, 0x00, 0x0f,
  0x00, 0x00, 0x00, 0x00, 0x00, 0x00, 0x00, 0x1b, 0x2f, 0xd4, 0x12, 0x00,
  0x00, 0x81, 0x00, 0x98, 0x00, 0x00, 0x00, 0x00, 0x00, 0x00, 0xb2, 0x00,
  0x00, 0xc6, 0x00, 0x00, 0x00, 0x00, 0x00, 0x17, 0x00, 0x00, 0x00, 0x00,
  0x00, 0x00, 0x00, 0x00, 0x00, 0x00, 0x00, 0x41, 0x00, 0x00, 0x00, 0x13,
  0x00, 0x00, 0x1d, 0x00, 0x26, 0x00, 0x00, 0x00, 0x2e, 0x00, 0xce, 0x00,
  0x00, 0x29, 0xcb, 0x00, 0x00, 0x00, 0x00, 0x00, 0x00, 0x00, 0x00, 0xe9,
  0x1d, 0x00, 0x1f, 0x00, 0x00, 0x40, 0x00, 0x45, 0x00, 0x00, 0x2c, 0x00,
  0x00, 0x00, 0x00, 0x00, 0x00, 0x00, 0x00, 0x1e, 0x1f, 0x64, 0x00, 0x00,
  0x00, 0x00, 0x00, 0x00, 0x1b, 0x2d, 0x1b, 0x00, 0x00, 0x00, 0x00, 0x00,
  0x00, 0x00, 0x00, 0x00, 0x00, 0xda, 0x00, 0x00, 0xe9, 0x14, 0x00, 0x00,
  0x00, 0x00, 0x00, 0x00, 0x00, 0x1c, 0x00, 0x00, 0x00, 0x00, 0x00, 0xea,
  0x00, 0x00, 0x00, 0x00, 0x00, 0x00, 0x00, 0x00, 0xe8, 0x00, 0x00, 0x24,
  0x00, 0xd5, 0x00, 0x00, 0xec, 0xb1, 0x00, 0xdd, 0x00, 0x00, 0x00, 0x00,
  0xe3, 0x00, 0x00, 0x00, 0x00, 0xdc, 0x00, 0x00, 0xdc, 0x81, 0xec, 0x00,
  0x00, 0x00, 0xd5, 0x00, 0x00, 0x00, 0x00, 0x00, 0x00, 0x00, 0x00, 0x12,
  0x00, 0x00, 0x00, 0x00, 0x00, 0x00, 0x00, 0x00, 0x00, 0x00, 0x00, 0x00,
  0x00, 0x00, 0x00, 0x00, 0xd9, 0x00, 0x00, 0x00, 0x00, 0xc5, 0xe4, 0x00,
  0x00, 0x00, 0x00, 0x00, 0x00, 0x00, 0x00, 0x00, 0x00, 0x00, 0x27, 0x00,
  0xc0, 0xde, 0x3f, 0x00, 0x00, 0x9b, 0x51, 0x00, 0x00, 0x87, 0x98, 0xba,
  0x00, 0x95, 0x00, 0x00, 0x9c, 0x00, 0x00, 0x00, 0xc9, 0x00, 0xbf, 0x00,
  0x31, 0x19, 0x00, 0x1a, 0x00, 0x00, 0x4a, 0x00, 0x00, 0x00, 0x00, 0xc7,
  0x00, 0x00, 0x1e, 0x00, 0x00, 0xd8, 0xd7, 0x00, 0x00, 0x00, 0x00, 0x00,
  0x00, 0x00, 0x00, 0x00, 0x00, 0x00, 0xca, 0x00, 0x00, 0x00, 0x00, 0xc0,
  0x00, 0xd3, 0x00, 0x00, 0x00, 0x00, 0x00, 0x00, 0xf1, 0x00, 0x00, 0xed,
  0x00, 0x00, 0xe0, 0x00, 0x00, 0x00, 0x00, 0x00, 0x32, 0x00, 0x00, 0x00,
  0xe4, 0x00, 0x00, 0x00, 0x00, 0x00, 0x00, 0x00, 0x00, 0xd9, 0x00, 0xee,
  0x00, 0x00, 0x00, 0x00, 0x00, 0x00, 0x00, 0x00, 0x00, 0x00, 0xb3, 0x00,
  0x00, 0x00, 0x00, 0x5d, 0x00, 0x2c, 0x00, 0x00, 0x00, 0x00, 0x00, 0x00,
  0x00, 0x00, 0x00, 0x1f, 0x20, 0x00, 0xdc, 0x00, 0x10, 0xee, 0x00, 0x00,
  0x15, 0x00, 0x00, 0x00, 0x00, 0x00, 0xd9, 0x00, 0x21, 0x00, 0x2c, 0x00,
  0xde, 0x00, 0x00, 0x00, 0x00, 0x00, 0xae, 0x81, 0xd7, 0xe5, 0x00, 0x00,
  0x00, 0x00, 0x00, 0x00, 0x1e, 0x00, 0x00, 0x00, 0x00, 0x00, 0x00, 0x00,
  0x00, 0x00, 0x00, 0x00, 0x00, 0x00, 0x00, 0x00, 0x1e, 0x00, 0x00, 0x22,
  0x00, 0xac, 0x00, 0x00, 0x1a, 0x00, 0x00, 0x00, 0x00, 0x00, 0x00, 0x00,
  0x00, 0x00, 0x00, 0xc7, 0x00, 0x00, 0x00, 0x00, 0x25, 0x8c, 0xe4, 0x00,
  0x00, 0x98, 0x00, 0x00, 0xb2, 0x00, 0x35, 0x1a, 0x00, 0x00, 0x00, 0x00,
  0x00, 0x00, 0x00, 0x21, 0x00, 0x00, 0xbf, 0x00, 0x00, 0xca, 0x00, 0x1b,
  0x17, 0x00, 0x00, 0x00, 0xe7, 0x00, 0x00, 0x00, 0x00, 0x00, 0x00, 0x23,
  0x00, 0x00, 0x00, 0x00, 0x00, 0xcc, 0xcb, 0x00, 0x00, 0x00, 0xe0, 0x00,
  0x00, 0x00, 0x00, 0x00, 0x27, 0xe1, 0xef, 0x2e, 0x00, 0x00, 0xc0, 0x00,
  0x00, 0x1e, 0x00, 0xba, 0x00, 0x00, 0xeb, 0xba, 0x00, 0x00, 0x00, 0x00,
  0x13, 0x00, 0x00, 0x00, 0x00, 0x00, 0x00, 0x2d, 0x00, 0x1b, 0x00, 0x00,
  0x00, 0x00, 0x3d, 0x00, 0x00, 0xbe, 0x00, 0x00, 0xd7, 0x17, 0x00, 0xc3,
  0xd4, 0xa7, 0x00, 0x00, 0x00, 0xc9, 0x00, 0x00, 0x00, 0x00, 0x00, 0x00,
  0x00, 0x00, 0x00, 0x00, 0x24, 0x00, 0x00, 0x00, 0x31, 0xd3, 0x00, 0x2f,
  0x00, 0xc5, 0x00, 0x00, 0x00, 0x00, 0x41, 0xa2, 0x00, 0x00, 0x00, 0x00,
  0x48, 0x00, 0x00, 0x00, 0x23, 0x00, 0x00, 0xa7, 0x00, 0xe6, 0xd3, 0x00,
  0xbd, 0xc1, 0x37, 0x00, 0xe5, 0x26, 0x00, 0x00, 0xdd, 0xdc, 0x4d, 0xed,
  0x00, 0x00, 0xee, 0x00, 0x00, 0x00, 0xf2, 0x00, 0x00, 0x00, 0x00, 0x00,
  0xe8, 0x00, 0x00, 0x00, 0x00, 0x00, 0x00, 0x00, 0x00, 0x00, 0x00, 0x00,
  0x00, 0xaf, 0x00, 0x00, 0x00, 0x00, 0x00, 0x00, 0x00, 0x00, 0x00, 0x00,
  0x00, 0x00, 0x00, 0x00, 0x00, 0x00, 0x00, 0x00, 0xd1, 0x00, 0x00, 0x00,
  0x22, 0x00, 0xd6, 0x00, 0xea, 0x00, 0x00, 0x00, 0x00, 0x00, 0x00, 0x00,
  0x00, 0x00, 0x00, 0x00, 0x00, 0x00, 0xe0, 0x00, 0x00, 0x00, 0x00, 0x00,
  0x00, 0x00, 0x00, 0x00, 0xd4, 0x17, 0xf2, 0x00, 0x00, 0x00, 0xd7, 0x00,
  0x00, 0x00, 0x31, 0x00, 0x00, 0x12, 0x00, 0xcc, 0x00, 0x00, 0x00, 0x00,
  0x00, 0x00, 0x00, 0x0f, 0x00, 0x00, 0x00, 0x00, 0x00, 0x14, 0x00, 0x00,
  0x00, 0x14, 0x00, 0x00, 0x00, 0x00, 0x00, 0x00, 0x00, 0x00, 0xf0, 0x00,
  0x27, 0x00, 0x00, 0x00, 0x11, 0x00, 0x00, 0x00, 0xc2, 0x00, 0x00, 0xe6,
  0x00, 0x00, 0x00, 0x00, 0x00, 0x00, 0x00, 0x1f, 0x00, 0xe0, 0x00, 0x00,
  0x0e, 0x00, 0x00, 0x00, 0x16, 0x00, 0x00, 0x00, 0x00, 0x00, 0x00, 0x1f,
  0x00, 0x00, 0x00, 0x00, 0x00, 0x00, 0x23, 0x00, 0x10, 0x00, 0x00, 0x44,
  0x17, 0xe0, 0x00, 0x00, 0xeb, 0x00, 0x00, 0x00, 0x00, 0x00, 0x00, 0x00,
  0x00, 0x00, 0x00, 0x00, 0x00, 0x00, 0xbf, 0x1f, 0x00, 0x00, 0x00, 0x00,
  0x00, 0x00, 0x00, 0x00, 0x00, 0x00, 0x00, 0x00, 0x00, 0x00, 0x20, 0x00,
  0xd9, 0x00, 0x00, 0x00, 0x00, 0x00, 0x00, 0x00, 0x00, 0x00, 0x00, 0x00,
  0x00, 0x00, 0x81, 0x00, 0x00, 0x00, 0x00, 0x36, 0x00, 0x1c, 0x00, 0x00,
  0x00, 0x00, 0xd6, 0x00, 0x00, 0xae, 0x00, 0x00, 0xca, 0x00, 0x00, 0x00,
  0x00, 0x00, 0xde, 0x00, 0x00, 0x00, 0x00, 0x00, 0x00, 0x00, 0x00, 0x00,
  0x00, 0x00, 0x70, 0x00, 0x00, 0x00, 0x57, 0x00, 0x17, 0x00, 0x00, 0xd4,
  0x00, 0x78, 0x00, 0x00, 0x00, 0x00, 0x00, 0x00, 0x00, 0x00, 0xdf, 0x00,
  0x00, 0x00, 0x1b, 0x00, 0x00, 0x00, 0x00, 0xde, 0x0c, 0x00, 0x11, 0x00,
  0xe7, 0x00, 0x00, 0x00, 0x00, 0x00, 0x00, 0x00, 0x00, 0x00, 0x00, 0x00,
  0xd7, 0x00, 0x00, 0x00, 0x00, 0x00, 0x00, 0x00, 0x00, 0x00, 0x19, 0x2d,
  0x44, 0x00, 0x00, 0x00, 0x00, 0x9e, 0xed, 0x00, 0xd0, 0x00, 0x36, 0x00,
  0x00, 0x00, 0x00, 0x00, 0x2b, 0x00, 0x1c, 0x00, 0x00, 0x00, 0x2a, 0x00,
  0x00, 0x00, 0xd2, 0x00, 0xe2, 0x00, 0x00, 0xda, 0x00, 0x00, 0x00, 0x33,
  0xe7, 0x85, 0x00, 0xc0, 0x00, 0x5a, 0x00, 0xae, 0x00, 0x00, 0x00, 0x00,
  0x00, 0xc7, 0x40, 0x40, 0x00, 0x00, 0x00, 0x00, 0x00, 0x00, 0x00, 0x46,
  0x00, 0x00, 0xde, 0x00, 0x33, 0x9f, 0x00, 0x00, 0x00, 0x81, 0x00, 0x00,
  0x00, 0x00, 0x00, 0x8f, 0x36, 0x00, 0x00, 0x00, 0x00, 0x00, 0x59, 0x43,
  0x00, 0x00, 0x00, 0x00, 0x00, 0x00, 0x00, 0x00, 0x00, 0x00, 0x00, 0x00,
  0x00, 0x00, 0xb8, 0x00, 0x00, 0x00, 0x00, 0x00, 0x00, 0x00, 0x00, 0x00,
  0x00, 0x00, 0x00, 0x00, 0x00, 0x00, 0x00, 0x00, 0x00, 0x00, 0x24, 0x00,
  0x00, 0x00, 0xd2, 0x00, 0x00, 0x23, 0x00, 0x00, 0xed, 0x00, 0x00, 0x00,
  0x00, 0x00, 0xcc, 0x00, 0x00, 0x00, 0xdc, 0x00, 0x00, 0x00, 0x00, 0x00,
  0x00, 0x00, 0x00, 0x00, 0xc8, 0x00, 0x00, 0x99, 0x2e, 0x13, 0x00, 0x00,
  0x00, 0x00, 0x00, 0x00, 0x00, 0xc3, 0x00, 0x00, 0x00, 0x00, 0xc9, 0x00,
  0x00, 0x00, 0x00, 0x00, 0x00, 0x00, 0x00, 0x00, 0x00, 0x00, 0x00, 0x00,
  0x00, 0xa8, 0x00, 0x00, 0x00, 0x00, 0x00, 0x00, 0x00, 0x00, 0x27, 0x00,
  0x00, 0xde, 0x00, 0x00, 0x00, 0x00, 0x00, 0x00, 0x00, 0x00, 0x00, 0x00,
  0x00, 0x00, 0x00, 0x15, 0x00, 0x27, 0x00, 0x00, 0x00, 0x00, 0x00, 0xd4,
  0x00, 0x00, 0x00, 0x00, 0x00, 0x00, 0x00, 0x16, 0x00, 0xdc, 0xe2, 0xe3,
  0x00, 0x00, 0x00, 0x00, 0xb3, 0x00, 0x00, 0x00, 0x00, 0x45, 0xec, 0x00,
  0x00, 0x00, 0x00, 0x00, 0xe2, 0x00, 0x00, 0x00, 0x3a, 0x00, 0x11, 0x00,
  0x00, 0x00, 0x00, 0x00, 0x00, 0xd6, 0x00, 0x00, 0x16, 0x21, 0x00, 0x00,
  0x00, 0x00, 0x00, 0x00, 0x2d, 0x00, 0x2b, 0x35, 0x00, 0x00, 0x00, 0x00,
  0x00, 0x00, 0x00, 0x00, 0x00, 0x00, 0x00, 0xe2, 0x00, 0xcc, 0x15, 0x00,
  0x00, 0x15, 0x00, 0xd7, 0x00, 0xe5, 0x00, 0x00, 0x00, 0xeb, 0x00, 0x00,
  0xef, 0x00, 0xe6, 0x00, 0x00, 0x16, 0x00, 0x00, 0xdf, 0x00, 0x00, 0x00,
  0x00, 0xd6, 0x00, 0xb7, 0xed, 0x00, 0x00, 0xde, 0x00, 0x19, 0x00, 0x00,
  0xe0, 0x00, 0x00, 0xf4, 0x00, 0xe6, 0xeb, 0x00, 0xe9, 0x00, 0x00, 0x00,
  0x00, 0x00, 0x00, 0x00, 0x00, 0x25, 0x00, 0x33, 0x00, 0x00, 0xec, 0x00,
  0x00, 0x00, 0x00, 0x00, 0xd2, 0x00, 0x00, 0x00, 0x00, 0x1d, 0x00, 0xe5,
  0x00, 0xb6, 0x00, 0x2f, 0x00, 0x00, 0x00, 0x81, 0x00, 0x00, 0x00, 0x00,
  0x00, 0x00, 0x00, 0x31, 0x00, 0x00, 0x00, 0x00, 0x00, 0x00, 0x00, 0x00,
  0xd6, 0x00, 0x00, 0x00, 0x00, 0x00, 0x00, 0x00, 0x00, 0x00, 0x00, 0x00,
  0x00, 0x00, 0x00, 0x00, 0xf4, 0xf0, 0x00, 0x00, 0x00, 0x00, 0x00, 0x00,
  0x00, 0x00, 0x00, 0x00, 0x00, 0x00, 0x1d, 0x00, 0x00, 0x00, 0x00, 0x00,
  0x00, 0x00, 0x00, 0x15, 0x00, 0x20, 0x00, 0x00, 0x00, 0x13, 0xf2, 0x00,
  0x00, 0x21, 0x00, 0x26, 0xf2, 0x00, 0x1f, 0x00, 0xb3, 0xd5, 0x00, 0x00,
  0x00, 0x00, 0x00, 0xe8, 0x00, 0x1e, 0x00, 0x12, 0xd8, 0xca, 0x00, 0xcc,
  0x00, 0x19, 0x00, 0x00, 0xdc, 0x00, 0x00, 0x00, 0x0d, 0x00, 0x00, 0x00,
  0xe1, 0x00, 0x00, 0xc7, 0x31, 0x00, 0x00, 0x00, 0xe5, 0x00, 0x00, 0x00,
  0x00, 0xdc, 0x00, 0x00, 0x00, 0xe3, 0x00, 0x00, 0x00, 0x00, 0x00, 0x00,
  0x00, 0xd9, 0x25, 0x20, 0x00, 0x00, 0xd0, 0x00, 0x00, 0x00, 0x00, 0x00,
  0x00, 0x00, 0x00, 0x00, 0x00, 0x0e, 0x00, 0x1e, 0x48, 0xc5, 0x00, 0x1c,
  0x00, 0xac, 0xcc, 0x00, 0x00, 0x00, 0x00, 0xe8, 0x00, 0x00, 0x00, 0x00,
  0x00, 0x00, 0x00, 0x1d, 0x10, 0xe6, 0x00, 0xee, 0x00, 0x00, 0x00, 0x00,
  0x00, 0x00, 0x00, 0x00, 0x00, 0xf0, 0x00, 0x2c, 0xe5, 0x89, 0xbb, 0x00,
  0xd7, 0x00, 0x00, 0x00, 0x00, 0x00, 0x00, 0x00, 0x24, 0x00, 0x00, 0x00,
  0x00, 0x00, 0x00, 0xdc, 0x00, 0x00, 0x00, 0x00, 0x00, 0x00, 0x1d, 0x00,
  0x00, 0x00, 0xbf, 0x00, 0x00, 0x00, 0x11, 0x15, 0x00, 0x00, 0x00, 0x00,
  0x0e, 0x00, 0x00, 0x00, 0x00, 0x10, 0x00, 0x00, 0x00, 0x00, 0x00, 0x00,
  0x00, 0x00, 0x00, 0x00, 0x00, 0x00, 0x00, 0x00, 0x00, 0xbf, 0x00, 0x00,
  0x00, 0x00, 0x00, 0x00, 0x00, 0x00, 0x00, 0x00, 0x00, 0x00, 0x00, 0x00,
  0x00, 0x00, 0x0e, 0x00, 0x00, 0x00, 0x00, 0x00, 0x00, 0x00, 0x00, 0x00,
  0x00, 0x00, 0x00, 0xef, 0x31, 0xc1, 0x00, 0x00, 0x0f, 0xd5, 0x00, 0x00,
  0x00, 0x00, 0x00, 0x00, 0x00, 0x00, 0x00, 0x26, 0x00, 0x00, 0x00, 0x00,
  0x00, 0x00, 0x00, 0x00, 0x00, 0x00, 0x00, 0x00, 0x00, 0x00, 0x00, 0x00,
  0x00, 0x00, 0x00, 0x00, 0x00, 0x00, 0x00, 0x00, 0x00, 0x00, 0x00, 0x00,
  0x00, 0x3a, 0x00, 0x00, 0x00, 0x15, 0x00, 0x00, 0x12, 0x00, 0x00, 0x00,
  0x30, 0x00, 0x00, 0x4f, 0x00, 0x00, 0x00, 0x14, 0x1c, 0xa4, 0x00, 0x00,
  0x00, 0xe7, 0x00, 0xe5, 0xea, 0x00, 0x00, 0xe8, 0x00, 0xdc, 0x00, 0x00,
  0x00, 0x00, 0x00, 0x00, 0x00, 0xa2, 0x00, 0x00, 0x00, 0x00, 0x00, 0x00,
  0x00, 0x00, 0x00, 0x00, 0x00, 0x00, 0x00, 0x00, 0x00, 0x00, 0x00, 0xe1,
  0x00, 0x3e, 0x00, 0x21, 0x00, 0x00, 0x00, 0x00, 0x00, 0x00, 0x00, 0x00,
  0x00, 0x00, 0x00, 0x00, 0x00, 0x00, 0xde, 0x00, 0x00, 0x00, 0x00, 0x00,
  0x00, 0x00, 0x00, 0x00, 0x00, 0xdb, 0x00, 0x00, 0xe8, 0x00, 0x00, 0x00,
  0xf1, 0x00, 0x00, 0x00, 0x00, 0x00, 0xdd, 0x00, 0x00, 0x00, 0x00, 0x00,
  0x00, 0x00, 0x00, 0x00, 0x00, 0x12, 0x18, 0x00, 0x00, 0xe4, 0xda, 0x00,
  0x00, 0x00, 0x21, 0x00, 0x00, 0x00, 0x00, 0x00, 0x00, 0x4f, 0x00, 0x00,
  0x00, 0xe2, 0x00, 0x00, 0xde, 0x00, 0x00, 0x00, 0x00, 0x00, 0x00, 0x00,
  0x00, 0x20, 0x7f, 0x00, 0xe2, 0x00, 0x00, 0xdf, 0x00, 0x00, 0x79, 0x00,
  0x00, 0x00, 0x00, 0x00, 0x00, 0x00, 0x16, 0x00, 0xdd, 0x00, 0x00, 0x00,
  0x00, 0x00, 0x00, 0x62, 0x00, 0x00, 0xdb, 0x00, 0x00, 0x00, 0x00, 0x16,
  0x00, 0x00, 0x00, 0xe8, 0x1c, 0x00, 0x5b, 0xd8, 0xb6, 0x00, 0x00, 0x00,
  0x00, 0x00, 0x00, 0x00, 0x00, 0x00, 0xca, 0x00, 0xdc, 0x00, 0x00, 0x00,
  0x00, 0x00, 0xc5, 0xb2, 0xc7, 0x00, 0x00, 0x00, 0xcf, 0x18, 0xbf, 0x00,
  0xd7, 0x23, 0x44, 0xd2, 0x00, 0x00, 0x00, 0x24, 0xea, 0x00, 0x00, 0x00,
  0xe7, 0x00, 0x00, 0x00, 0xdb, 0x00, 0x00, 0x55, 0x00, 0x00, 0xc9, 0x00,
  0xd9, 0x00, 0x00, 0xc5, 0x00, 0x00, 0xdd, 0x00, 0x00, 0x00, 0x00, 0xc1,
  0xe0, 0x00, 0xd1, 0x00, 0x00, 0x00, 0x00, 0x00, 0x00, 0x00, 0x00, 0x00,
  0xd3, 0x00, 0x00, 0x00, 0x00, 0x26, 0x00, 0x00, 0x00, 0x00, 0x00, 0x38,
  0x00, 0xd1, 0x00, 0x98, 0x1f, 0x00, 0x68, 0x00, 0x00, 0xa7, 0x00, 0x00,
  0x00, 0x00, 0x00, 0x00, 0xad, 0x00, 0xa0, 0x00, 0x00, 0x00, 0x00, 0x00,
  0x00, 0x00, 0x00, 0x00, 0x00, 0x00, 0x00, 0x00, 0xb7, 0x00, 0xad, 0x81,
  0x00, 0x5b, 0x00, 0x00, 0xd2, 0x00, 0x00, 0x00, 0xec, 0x27, 0x00, 0x00,
  0x00, 0x45, 0x00, 0xbb, 0x00, 0x57, 0x00, 0x5a, 0xa9, 0x00, 0x00, 0xa6,
  0x00, 0x29, 0x66, 0x3c, 0xc1, 0x3a, 0x00, 0x00, 0x00, 0x00, 0x41, 0x00,
  0x00, 0xdd, 0x00, 0x00, 0x00, 0x00, 0x00, 0x00, 0x00, 0x00, 0x00, 0xcf,
  0xda, 0x00, 0x00, 0x00, 0x4c, 0x59, 0x00, 0x00, 0x00, 0x00, 0x00, 0x00,
  0x00, 0x00, 0xd0, 0x00, 0x19, 0x00, 0x49, 0x00, 0x00, 0x00, 0x00, 0x00,
  0x00, 0x00, 0x43, 0x00, 0x00, 0x00, 0x00, 0x00, 0x00, 0x00, 0x4f, 0x00,
  0x00, 0x00, 0x00, 0x00, 0x00, 0x00, 0x00, 0x00, 0x00, 0x00, 0x00, 0x00,
  0x00, 0x00, 0x00, 0x29, 0x00, 0x00, 0x00, 0x00, 0x36, 0x00, 0x00, 0x00,
  0x00, 0x00, 0x00, 0x1f, 0x00, 0x00, 0x00, 0x00, 0xe4, 0x19, 0x00, 0x00,
  0x00, 0x6f, 0x00, 0x00, 0x30, 0x00, 0x00, 0x00, 0x25, 0x00, 0x00, 0x00,
  0x00, 0x2c, 0x00, 0x00, 0x22, 0x43, 0x1d, 0x00, 0x00, 0x00, 0x00, 0x6c,
  0x00, 0x00, 0x00, 0x00, 0x00, 0x00, 0xbd, 0x00, 0x00, 0xb4, 0x00, 0xd1,
  0x00, 0x00, 0x00, 0x00, 0xce, 0x88, 0x00, 0xdd, 0xa8, 0x00, 0x00, 0x00,
  0x00, 0x00, 0xd1, 0x97, 0x59, 0x00, 0xe1, 0xeb, 0xd7, 0x00, 0x7f, 0x00,
  0x00, 0x00, 0xe1, 0x39, 0x00, 0x00, 0x00, 0x00, 0x00, 0xaa, 0x00, 0xc8,
  0x00, 0x00, 0x00, 0x00, 0xd2, 0x00, 0x39, 0x00, 0x00, 0xb8, 0x00, 0x00,
  0x00, 0x00, 0x3c, 0x00, 0x00, 0x00, 0xa5, 0x82, 0x00, 0x1d, 0x00, 0x41,
  0x00, 0x00, 0x00, 0x00, 0x00, 0xda, 0x00, 0x19, 0x00, 0x00, 0x00, 0x00,
  0x00, 0x00, 0x00, 0x00, 0x29, 0x00, 0x00, 0x00, 0x00, 0x00, 0x00, 0x00,
  0x00, 0x00, 0x00, 0x00, 0x00, 0xe7, 0xdf, 0x00, 0x00, 0x00, 0x00, 0xd1,
  0x00, 0x00, 0xde, 0x36, 0xe6, 0x00, 0x00, 0x00, 0x00, 0x36, 0x00, 0x00,
  0x00, 0x00, 0x00, 0x00, 0x00, 0x00, 0x00, 0x00, 0x00, 0x00, 0x00, 0x00,
  0x15, 0x00, 0x00, 0x00, 0x00, 0x3a, 0x00, 0x00, 0x00, 0x00, 0xd7, 0x00,
  0x00, 0x00, 0xc9, 0x00, 0x27, 0x00, 0x00, 0x00, 0x00, 0x22, 0x00, 0x00,
  0x48, 0x9f, 0x00, 0x00, 0x00, 0x00, 0x00, 0x00, 0x00, 0x00, 0x00, 0x00,
  0x00, 0x00, 0x31, 0x00, 0x00, 0x00, 0x00, 0x00, 0x00, 0x00, 0x00, 0x00,
  0x00, 0x00, 0x36, 0x00, 0x00, 0x6d, 0xe4, 0x00, 0x00, 0x00, 0x00, 0x00,
  0x00, 0xee, 0x49, 0x00, 0x00, 0x00, 0xe8, 0x00, 0x00, 0x00, 0x00, 0x00,
  0x2a, 0x00, 0x00, 0x00, 0x00, 0x00, 0x00, 0x00, 0x00, 0x00, 0x00, 0x00,
  0x00, 0x29, 0x1c, 0x00, 0x00, 0x00, 0x00, 0x00, 0x00, 0x00, 0x00, 0x00,
  0x00, 0x00, 0x00, 0x00, 0x00, 0x00, 0x00, 0x18, 0x00, 0x31, 0xe9, 0x00,
  0x12, 0x00, 0x00, 0x00, 0x00, 0x00, 0xdd, 0x30, 0x00, 0x00, 0x00, 0xc0,
  0xdf, 0x00, 0xd4, 0x00, 0x00, 0x00, 0x00, 0x1c, 0x00, 0xcc, 0x00, 0x00,
  0x00, 0x00, 0x00, 0x1d, 0xeb, 0xde, 0x00, 0x00, 0x00, 0x33, 0x00, 0x00,
  0x00, 0xdb, 0x00, 0x27, 0x00, 0x28, 0x00, 0x00, 0x00, 0x00, 0x00, 0xb1,
  0x00, 0x00, 0x00, 0x00, 0x29, 0x00, 0xdf, 0x00, 0xf0, 0x00, 0x14, 0xe3,
  0x00, 0x00, 0x17, 0x00, 0xed, 0x00, 0x00, 0x00, 0x00, 0x00, 0x00, 0xba,
  0x00, 0xe5, 0x00, 0x3b, 0x00, 0x00, 0x00, 0x00, 0x00, 0x00, 0x00, 0xd7,
  0x00, 0x00, 0x00, 0x00, 0xde, 0x00, 0x00, 0x00, 0x00, 0x00, 0x00, 0xd2,
  0x00, 0xef, 0x12, 0x00, 0xaa, 0x00, 0x00, 0x00, 0x00, 0x00, 0x00, 0x00,
  0x00, 0x0e, 0x00, 0x00, 0x00, 0x00, 0x00, 0x00, 0x00, 0x00, 0x00, 0xcf,
  0x00, 0xb6, 0x00, 0x00, 0x00, 0x00, 0xb2, 0xc9, 0xf0, 0x00, 0x00, 0x00,
  0x00, 0x00, 0x00, 0x00, 0x00, 0x00, 0xdf, 0x00, 0x00, 0x00, 0x00, 0x81,
  0x00, 0x00, 0x00, 0x00, 0x00, 0x00, 0x00, 0x21, 0x11, 0x00, 0x00, 0x00,
  0xdf, 0x00, 0x00, 0xea, 0x00, 0x12, 0x00, 0x00, 0x00, 0x00, 0x00, 0x00,
  0x00, 0x00, 0x00, 0x00, 0x00, 0x00, 0x00, 0x17, 0x00, 0x32, 0x00, 0x00,
  0x00, 0x00, 0x13, 0x00, 0x00, 0x00, 0x00, 0x00, 0xe1, 0x00, 0xf1, 0x00,
  0x00, 0x35, 0x00, 0x1a, 0x00, 0x00, 0x00, 0x2c, 0xec, 0x00, 0x00, 0x00,
  0x00, 0x00, 0x00, 0x00, 0x00, 0x20, 0xe8, 0x00, 0x00, 0x00, 0x00, 0x00,
  0x00, 0x20, 0x14, 0x00, 0x00, 0xe2, 0x00, 0x00, 0x00, 0x00, 0x00, 0x1b,
  0x00, 0x32, 0x00, 0x00, 0x00, 0x16, 0x00, 0xda, 0x37, 0x00, 0x00, 0x1a,
  0xe5, 0x96, 0x00, 0x00, 0x00, 0x00, 0x00, 0x00, 0x00, 0x00, 0x00, 0xce,
  0x00, 0x00, 0x0f, 0xcc, 0x00, 0x19, 0x00, 0x00, 0x00, 0x00, 0x00, 0x00,
  0x00, 0xd5, 0x00, 0x00, 0x00, 0x00, 0x00, 0x00, 0xdf, 0x00, 0x00, 0x00,
  0x00, 0x56, 0x00, 0x00, 0x00, 0x00, 0x30, 0x00, 0x4b, 0x9e, 0x00, 0x00,
  0x00, 0x00, 0x59, 0x00, 0x00, 0x00, 0x00, 0x00, 0x26, 0xdc, 0x00, 0x00,
  0x00, 0x00, 0x00, 0x00, 0x00, 0x00, 0x00, 0x00, 0x24, 0x00, 0x17, 0x00,
  0x25, 0x00, 0xda, 0x45, 0x00, 0xb6, 0xe7, 0x00, 0x00, 0x00, 0x00, 0x10,
  0x00, 0x00, 0x00, 0x00, 0x51, 0x19, 0x00, 0x00, 0x00, 0x00, 0x81, 0x00,
  0x00, 0xca, 0x00, 0x00, 0xd3, 0x00, 0x00, 0x00, 0x00, 0x00, 0xb7, 0x00,
  0x00, 0x00, 0x00, 0x1a, 0x00, 0xdc, 0xa0, 0x00, 0x00, 0x13, 0x00, 0x00,
  0x12, 0x00, 0x00, 0x00, 0x00, 0x00, 0xab, 0x00, 0x00, 0x00, 0x00, 0x00,
  0x00, 0x00, 0x00, 0x00, 0xee, 0x00, 0xa2, 0xf0, 0xcc, 0x00, 0x13, 0x00,
  0xf6, 0xf2, 0xcf, 0x00, 0x00, 0x00, 0x00, 0x00, 0xcf, 0xf4, 0xe3, 0x00,
  0x00, 0x81, 0x00, 0x00, 0x00, 0xdd, 0x00, 0x00, 0x00, 0x00, 0x00, 0x00,
  0x00, 0x00, 0x00, 0x00, 0x00, 0x22, 0x00, 0x0f, 0x00, 0x00, 0x00, 0x00,
  0x00, 0x30, 0x2b, 0x00, 0x00, 0x2e, 0xe1, 0x00, 0x28, 0x27, 0x00, 0x00,
  0x00, 0x00, 0x00, 0x00, 0x00, 0x00, 0x00, 0x00, 0xb3, 0xdf, 0xda, 0x00,
  0x00, 0x0e, 0x00, 0x00, 0x00, 0x00, 0xd4, 0xce, 0x00, 0x00, 0x00, 0x00,
  0x00, 0x00, 0x00, 0x93, 0x00, 0xc3, 0x00, 0x00, 0x00, 0xb8, 0x00, 0x00,
  0xe6, 0xeb, 0x00, 0x00, 0x00, 0x00, 0x00, 0x00, 0x00, 0x00, 0x00, 0x00,
  0xeb, 0x00, 0x00, 0x00, 0x00, 0xe5, 0xca, 0xe9, 0xde, 0xda, 0xeb, 0x00,
  0x00, 0x00, 0x00, 0x00, 0xe4, 0x00, 0xd3, 0x00, 0xd3, 0x00, 0x00, 0x00,
  0x00, 0x00, 0x1b, 0x00, 0xd0, 0x1b, 0x00, 0x00, 0x00, 0x00, 0x00, 0x00,
  0x19, 0x00, 0x00, 0x00, 0x00, 0x33, 0x00, 0x00, 0x00, 0x2a, 0x00, 0x00,
  0x00, 0x18, 0x00, 0x00, 0x13, 0x00, 0xec, 0x00, 0x00, 0x00, 0x00, 0x00,
  0x00, 0x00, 0x13, 0x00, 0xf2, 0x00, 0x00, 0x00, 0x00, 0x00, 0x00, 0x00,
  0x00, 0x00, 0x00, 0x00, 0x0a, 0x00, 0x00, 0x00, 0x00, 0x00, 0x00, 0x00,
  0x00, 0x00, 0x00, 0x00, 0xeb, 0xd7, 0x00, 0x00, 0x00, 0x00, 0x00, 0x00,
  0xe7, 0xe7, 0x00, 0x00, 0x12, 0x00, 0x00, 0xdf, 0x00, 0x00, 0x00, 0x00,
  0x00, 0x00, 0xf0, 0xd1, 0x00, 0xe6, 0x00, 0xd5, 0x9e, 0x00, 0x00, 0xc9,
  0x00, 0xdd, 0xdd, 0x00, 0x00, 0x00, 0x00, 0x00, 0x00, 0x00, 0x00, 0xb0,
  0x00, 0x00, 0x00, 0x00, 0xe2, 0x00, 0x00, 0x00, 0x00, 0x00, 0x00, 0xc4,
  0xe8, 0x00, 0x00, 0x00, 0x00, 0x13, 0xf0, 0x00, 0x00, 0xde, 0x00, 0x00,
  0x00, 0x00, 0x00, 0x00, 0x00, 0x1f, 0x00, 0x00, 0xe4, 0x00, 0x00, 0x00,
  0x00, 0x00, 0x00, 0xf1, 0x00, 0x00, 0x00, 0xd7, 0x00, 0x00, 0x00, 0x00,
  0x00, 0x22, 0x00, 0x00, 0x00, 0xcc, 0x00, 0x00, 0x00, 0x23, 0x1c, 0x00,
  0x00, 0x30, 0x00, 0x00, 0x00, 0xf5, 0x00, 0x00, 0x00, 0x00, 0x00, 0x00,
  0x00, 0x2f, 0x00, 0xab, 0x00, 0x00, 0x00, 0x15, 0x00, 0x00, 0x00, 0xdc,
  0x00, 0xd1, 0x00, 0x00, 0x14, 0x13, 0x00, 0x00, 0x00, 0x00, 0x00, 0x00,
  0x00, 0x00, 0x00, 0x00, 0x0b, 0x00, 0x00, 0x1f, 0x00, 0x00, 0x00, 0xc8,
  0x00, 0x00, 0xe2, 0x00, 0xe9, 0xed, 0x00, 0xe8, 0x00, 0x00, 0x00, 0x00,
  0x00, 0x13, 0x00, 0x00, 0x00, 0x00, 0x00, 0x00, 0x14, 0x00, 0x00, 0x00,
  0x00, 0x00, 0xc4, 0x00, 0x00, 0x00, 0x2a, 0xc8, 0x00, 0x00, 0x00, 0x00,
  0xe3, 0x00, 0x12, 0xc5, 0x00, 0x00, 0x00, 0x00, 0x00, 0x00, 0x00, 0x00,
  0x00, 0x2c, 0x00, 0x00, 0x26, 0xea, 0x00, 0x00, 0x00, 0x00, 0x00, 0x00,
  0xe7, 0x33, 0x00, 0x00, 0x00, 0x34, 0x00, 0x13, 0x00, 0x00, 0x00, 0x81,
