#include "pruned_quantized.h"

const unsigned char pruned_quantized[] = {
  0x20, 0x00, 0x00, 0x00, 0x54, 0x46, 0x4c, 0x33, 0x00, 0x00, 0x00, 0x00,
  0x14, 0x00, 0x20, 0x00, 0x1c, 0x00, 0x18, 0x00, 0x14, 0x00, 0x10, 0x00,
  0x0c, 0x00, 0x00, 0x00, 0x08, 0x00, 0x04, 0x00, 0x14, 0x00, 0x00, 0x00,
  0x1c, 0x00, 0x00, 0x00, 0x80, 0x00, 0x00, 0x00, 0xd8, 0x00, 0x00, 0x00,
  0xe8, 0x34, 0x00, 0x00, 0xf8, 0x34, 0x00, 0x00, 0x7c, 0x45, 0x00, 0x00,
  0x03, 0x00, 0x00, 0x00, 0x01, 0x00, 0x00, 0x00, 0x04, 0x00, 0x00, 0x00,
  0x2e, 0xca, 0xff, 0xff, 0x0c, 0x00, 0x00, 0x00, 0x1c, 0x00, 0x00, 0x00,
  0x38, 0x00, 0x00, 0x00, 0x0f, 0x00, 0x00, 0x00, 0x73, 0x65, 0x72, 0x76,
  0x69, 0x6e, 0x67, 0x5f, 0x64, 0x65, 0x66, 0x61, 0x75, 0x6c, 0x74, 0x00,
  0x01, 0x00, 0x00, 0x00, 0x04, 0x00, 0x00, 0x00, 0x9c, 0xff, 0xff, 0xff,
  0x10, 0x00, 0x00, 0x00, 0x04, 0x00, 0x00, 0x00, 0x07, 0x00, 0x00, 0x00,
  0x64, 0x65, 0x6e, 0x73, 0x65, 0x5f, 0x31, 0x00, 0x01, 0x00, 0x00, 0x00,
  0x04, 0x00, 0x00, 0x00, 0xce, 0xca, 0xff, 0xff, 0x04, 0x00, 0x00, 0x00,
  0x07, 0x00, 0x00, 0x00, 0x69, 0x6e, 0x70, 0x75, 0x74, 0x5f, 0x32, 0x00,
  0x02, 0x00, 0x00, 0x00, 0x34, 0x00, 0x00, 0x00, 0x04, 0x00, 0x00, 0x00,
  0xdc, 0xff, 0xff, 0xff, 0x13, 0x00, 0x00, 0x00, 0x04, 0x00, 0x00, 0x00,
  0x13, 0x00, 0x00, 0x00, 0x43, 0x4f, 0x4e, 0x56, 0x45, 0x52, 0x53, 0x49,
  0x4f, 0x4e, 0x5f, 0x4d, 0x45, 0x54, 0x41, 0x44, 0x41, 0x54, 0x41, 0x00,
  0x08, 0x00, 0x0c, 0x00, 0x08, 0x00, 0x04, 0x00, 0x08, 0x00, 0x00, 0x00,
  0x12, 0x00, 0x00, 0x00, 0x04, 0x00, 0x00, 0x00, 0x13, 0x00, 0x00, 0x00,
  0x6d, 0x69, 0x6e, 0x5f, 0x72, 0x75, 0x6e, 0x74, 0x69, 0x6d, 0x65, 0x5f,
  0x76, 0x65, 0x72, 0x73, 0x69, 0x6f, 0x6e, 0x00, 0x14, 0x00, 0x00, 0x00,
  0x0c, 0x34, 0x00, 0x00, 0x04, 0x34, 0x00, 0x00, 0xec, 0x33, 0x00, 0x00,
  0xb4, 0x33, 0x00, 0x00, 0x64, 0x14, 0x00, 0x00, 0xd4, 0x13, 0x00, 0x00,
  0xc4, 0x01, 0x00, 0x00, 0x74, 0x01, 0x00, 0x00, 0xd4, 0x00, 0x00, 0x00,
  0xcc, 0x00, 0x00, 0x00, 0xc4, 0x00, 0x00, 0x00, 0xbc, 0x00, 0x00, 0x00,
  0xb4, 0x00, 0x00, 0x00, 0xac, 0x00, 0x00, 0x00, 0xa4, 0x00, 0x00, 0x00,
  0x9c, 0x00, 0x00, 0x00, 0x94, 0x00, 0x00, 0x00, 0x8c, 0x00, 0x00, 0x00,
  0x6c, 0x00, 0x00, 0x00, 0x04, 0x00, 0x00, 0x00, 0x92, 0xcb, 0xff, 0xff,
  0x04, 0x00, 0x00, 0x00, 0x58, 0x00, 0x00, 0x00, 0x0c, 0x00, 0x00, 0x00,
  0x08, 0x00, 0x0e, 0x00, 0x08, 0x00, 0x04, 0x00, 0x08, 0x00, 0x00, 0x00,
  0x10, 0x00, 0x00, 0x00, 0x28, 0x00, 0x00, 0x00, 0x00, 0x00, 0x06, 0x00,
  0x08, 0x00, 0x04, 0x00, 0x06, 0x00, 0x00, 0x00, 0x04, 0x00, 0x00, 0x00,
  0x01, 0x00, 0x00, 0x00, 0xeb, 0x03, 0x00, 0x00, 0x00, 0x00, 0x0a, 0x00,
  0x10, 0x00, 0x0c, 0x00, 0x08, 0x00, 0x04, 0x00, 0x0a, 0x00, 0x00, 0x00,
  0x02, 0x00, 0x00, 0x00, 0x02, 0x00, 0x00, 0x00, 0x04, 0x00, 0x00, 0x00,
  0x06, 0x00, 0x00, 0x00, 0x32, 0x2e, 0x31, 0x30, 0x2e, 0x30, 0x00, 0x00,
  0xf6, 0xcb, 0xff, 0xff, 0x04, 0x00, 0x00, 0x00, 0x10, 0x00, 0x00, 0x00,
  0x31, 0x2e, 0x31, 0x34, 0x2e, 0x30, 0x00, 0x00, 0x00, 0x00, 0x00, 0x00,
  0x00, 0x00, 0x00, 0x00, 0x04, 0xbd, 0xff, 0xff, 0x08, 0xbd, 0xff, 0xff,
  0x0c, 0xbd, 0xff, 0xff, 0x10, 0xbd, 0xff, 0xff, 0x14, 0xbd, 0xff, 0xff,
  0x18, 0xbd, 0xff, 0xff, 0x1c, 0xbd, 0xff, 0xff, 0x20, 0xbd, 0xff, 0xff,
  0x24, 0xbd, 0xff, 0xff, 0x36, 0xcc, 0xff, 0xff, 0x04, 0x00, 0x00, 0x00,
  0x90, 0x00, 0x00, 0x00, 0x67, 0x5f, 0x00, 0x00, 0xb7, 0xd1, 0x81, 0x00,
  0x00, 0x7a, 0x00, 0x68, 0x7f, 0x00, 0x00, 0x00, 0x96, 0x00, 0x49, 0x00,
  0xa8, 0x00, 0x00, 0x00, 0x34, 0x00, 0x81, 0x2e, 0x00, 0x00, 0x00, 0x5a,
  0x65, 0xc4, 0x00, 0x7f, 0x81, 0x00, 0xa0, 0x00, 0x3a, 0x00, 0x63, 0x00,
  0x00, 0x7f, 0x00, 0x00, 0x00, 0x00, 0x7b, 0x00, 0x00, 0x00, 0x00, 0x00,
  0x7f, 0x00, 0x00, 0x6c, 0x00, 0x00, 0x00, 0x00, 0x00, 0x6e, 0x00, 0x00,
  0x00, 0x00, 0x00, 0x81, 0x57, 0x7f, 0x00, 0x7e, 0x00, 0x77, 0x00, 0x00,
  0x57, 0x42, 0x67, 0x7f, 0x00, 0x00, 0x00, 0x00, 0x00, 0x53, 0x59, 0x00,
  0x00, 0x00, 0x5f, 0x8c, 0x7f, 0x00, 0x95, 0x36, 0x00, 0x6f, 0x00, 0x00,
  0x7c, 0x9a, 0x81, 0x8b, 0x5e, 0x00, 0x6e, 0x6e, 0x00, 0x00, 0x00, 0x00,
  0x81, 0x81, 0x9e, 0x9e, 0x00, 0x00, 0xe6, 0x4e, 0x00, 0x00, 0x00, 0xab,
  0xd1, 0x00, 0x00, 0x00, 0x00, 0x7f, 0x00, 0x00, 0x00, 0x46, 0x00, 0x6b,
  0x7f, 0x62, 0x00, 0x00, 0xd2, 0xcc, 0xff, 0xff, 0x04, 0x00, 0x00, 0x00,
  0x40, 0x00, 0x00, 0x00, 0x5f, 0x0b, 0x00, 0x00, 0xe4, 0x04, 0x00, 0x00,
  0xbf, 0x10, 0x00, 0x00, 0xfa, 0xf6, 0xff, 0xff, 0x95, 0x03, 0x00, 0x00,
  0x10, 0x00, 0x00, 0x00, 0xab, 0x01, 0x00, 0x00, 0xc2, 0x06, 0x00, 0x00,
  0x88, 0xdb, 0xff, 0xff, 0xe6, 0xff, 0xff, 0xff, 0x9f, 0xfe, 0xff, 0xff,
  0x98, 0xff, 0xff, 0xff, 0xd2, 0xfd, 0xff, 0xff, 0x62, 0x3b, 0x00, 0x00,
  0xd6, 0x05, 0x00, 0x00, 0x42, 0xff, 0xff, 0xff, 0x1e, 0xcd, 0xff, 0xff,
  0x04, 0x00, 0x00, 0x00, 0x00, 0x12, 0x00, 0x00, 0x6d, 0xe9, 0x00, 0xb2,
  0x17, 0x00, 0xc4, 0x00, 0xc2, 0xae, 0x00, 0xff, 0xcf, 0x00, 0x26, 0x00,
  0x00, 0xaa, 0x00, 0x00, 0x00, 0xb2, 0x00, 0x00, 0x00, 0x00, 0x00, 0x00,
  0x00, 0x00, 0x00, 0xc0, 0xf9, 0x00, 0xb9, 0x00, 0x46, 0xc1, 0x98, 0x00,
  0x00, 0x00, 0xf4, 0x00, 0x00, 0x00, 0x00, 0x00, 0xa8, 0x00, 0x00, 0x00,
  0x54, 0x06, 0x00, 0xe8, 0x09, 0x00, 0xb0, 0x00, 0xdb, 0x00, 0x36, 0x30,
  0xfe, 0x15, 0x00, 0x00, 0x3f, 0x00, 0x00, 0x00, 0x00, 0x15, 0x00, 0x00,
  0x00, 0x00, 0x34, 0x00, 0x00, 0x00, 0xb5, 0x00, 0x66, 0x00, 0x00, 0x1c,
  0x29, 0x00, 0xd5, 0x00, 0x00, 0x00, 0x00, 0x00, 0x5f, 0x5d, 0xb5, 0x00,
  0x00, 0x24, 0x00, 0x18, 0x00, 0x1f, 0x00, 0x00, 0x00, 0x00, 0x00, 0x2c,
  0x00, 0x3a, 0x81, 0x00, 0x00, 0xd4, 0x00, 0x00, 0x17, 0x00, 0x00, 0x47,
  0x3f, 0x00, 0x00, 0xe6, 0x5b, 0x00, 0xc5, 0x00, 0x00, 0x00, 0x00, 0x00,
  0x1e, 0x00, 0x08, 0x00, 0x00, 0x1e, 0x00, 0x00, 0x00, 0x00, 0x00, 0x00,
  0xb8, 0x25, 0x10, 0xe8, 0xee, 0x00, 0x40, 0x00, 0x2d, 0xb4, 0x00, 0x00,
  0x00, 0x13, 0x27, 0x00, 0xb0, 0x00, 0xdd, 0x00, 0xde, 0x00, 0x0c, 0x00,
  0xdf, 0xdf, 0x00, 0xdc, 0x00, 0xee, 0x00, 0xda, 0x0c, 0xea, 0x00, 0x00,
  0x00, 0xd4, 0xc9, 0x00, 0x00, 0xf8, 0xc8, 0x00, 0x00, 0x29, 0x00, 0x00,
  0xbe, 0x37, 0x00, 0x00, 0x2b, 0x00, 0x00, 0xcb, 0x13, 0x00, 0x00, 0x00,
  0x00, 0x09, 0xbe, 0x00, 0x00, 0x00, 0xf3, 0xfa, 0x13, 0x00, 0x00, 0x00,
  0xd4, 0xf4, 0x4d, 0xf1, 0x00, 0xd2, 0x00, 0x0e, 0x58, 0x0d, 0xb1, 0x00,
  0xe1, 0xc2, 0x00, 0x00, 0xc3, 0x00, 0x3e, 0xdd, 0x00, 0x00, 0xbb, 0x00,
  0x00, 0x00, 0x00, 0x00, 0x00, 0x00, 0x10, 0x17, 0xf8, 0xb7, 0x00, 0x31,
  0x00, 0x00, 0x00, 0x2c, 0x5f, 0x46, 0x2f, 0x00, 0x00, 0x00, 0xfb, 0x00,
  0x00, 0xd7, 0x36, 0x00, 0x00, 0x00, 0x81, 0x00, 0x00, 0x40, 0x28, 0x2e,
  0x00, 0x37, 0xcf, 0x00, 0x00, 0x00, 0x00, 0x23, 0x34, 0x26, 0x00, 0x00,
  0x00, 0x1f, 0xf4, 0x36, 0x1c, 0xee, 0x00, 0x4a, 0x2e, 0xcf, 0xd8, 0xe7,
  0x00, 0x28, 0x00, 0x00, 0x00, 0x2f, 0x00, 0x61, 0x23, 0x00, 0xdb, 0x00,
  0x00, 0xe8, 0xf2, 0x22, 0x00, 0x3c, 0xb7, 0x00, 0x00, 0x00, 0x00, 0x00,
  0x37, 0x43, 0x00, 0x00, 0x00, 0x25, 0x30, 0x00, 0x1b, 0x00, 0x00, 0xe7,
  0xa9, 0xcd, 0x00, 0x00, 0x00, 0xda, 0x00, 0x00, 0x00, 0x25, 0xfd, 0x00,
  0x00, 0x00, 0x00, 0x00, 0xef, 0x00, 0xea, 0x08, 0x00, 0x14, 0x00, 0x00,
  0xe5, 0x00, 0x00, 0xcf, 0x00, 0x00, 0x00, 0x00, 0x00, 0x00, 0x00, 0x63,
  0x00, 0x00, 0x00, 0x00, 0x00, 0x0a, 0x00, 0x00, 0x00, 0x00, 0x00, 0x00,
  0x00, 0x00, 0x00, 0x00, 0x00, 0x00, 0xc2, 0x00, 0x00, 0x00, 0x10, 0xc7,
  0x00, 0xc6, 0xe8, 0x00, 0xe6, 0xd1, 0x00, 0x00, 0x00, 0xc9, 0x00, 0x00,
  0x00, 0x00, 0x00, 0xdc, 0x06, 0x00, 0x00, 0x00, 0x00, 0x00, 0xec, 0x00,
  0xc1, 0x00, 0x00, 0x81, 0xe1, 0xf2, 0x00, 0x00, 0x81, 0xc8, 0xbe, 0x00,
  0xe1, 0x00, 0x05, 0x00, 0xc9, 0x00, 0x00, 0x00, 0x00, 0x00, 0x00, 0xdd,
  0x00, 0x00, 0x2e, 0x00, 0x00, 0x11, 0x1d, 0x12, 0x00, 0x19, 0x2b, 0xcf,
  0x11, 0x00, 0x00, 0x00, 0x00, 0x25, 0x00, 0x00, 0x00, 0x00, 0xe5, 0x00,
  0x00, 0x00, 0x37, 0xf4, 0x00, 0x00, 0x00, 0x00, 0xe1, 0xf3, 0x00, 0x00,
  0x00, 0x00, 0x27, 0x41, 0x00, 0x13, 0x18, 0x00, 0x27, 0x00, 0xd6, 0x00,
  0x46, 0x26, 0x00, 0xf6, 0xbf, 0x1c, 0x00, 0x00, 0x00, 0x00, 0x00, 0x00,
  0x33, 0x00, 0x00, 0x30, 0x31, 0x00, 0x00, 0xf7, 0x00, 0x18, 0x00, 0x00,
  0x00, 0x0c, 0x00, 0x13, 0x00, 0x00, 0x00, 0xce, 0x4a, 0x27, 0x2d, 0x00,
  0xac, 0xd7, 0x00, 0x05, 0x00, 0x00, 0x12, 0xf5, 0x00, 0xce, 0x00, 0x00,
  0x00, 0x00, 0x00, 0x00, 0x8a, 0x00, 0xda, 0x2b, 0x00, 0x00, 0x00, 0x00,
  0xd8, 0xe7, 0xc3, 0x00, 0x00, 0xda, 0x00, 0xb2, 0xb8, 0xcd, 0x00, 0x00,
  0xce, 0xc3, 0xbd, 0x00, 0xcc, 0x00, 0xca, 0xa2, 0x00, 0xcd, 0xd8, 0x00,
  0x00, 0x00, 0x00, 0x00, 0xd9, 0x00, 0x00, 0x0a, 0xbd, 0x00, 0x00, 0x00,
  0xe4, 0xde, 0xe2, 0x00, 0x00, 0x17, 0x38, 0x00, 0x00, 0x00, 0x00, 0xcb,
  0x00, 0x00, 0x00, 0x17, 0x14, 0x00, 0x65, 0xfa, 0x00, 0x00, 0x00, 0x00,
  0x25, 0x00, 0x00, 0xbe, 0x41, 0x00, 0x00, 0x00, 0xa9, 0x00, 0x00, 0x00,
  0x00, 0xbc, 0x03, 0x00, 0xc2, 0xe6, 0xd2, 0x00, 0x00, 0x00, 0x1a, 0x00,
  0x00, 0x00, 0xe5, 0x00, 0x00, 0x00, 0x00, 0xca, 0x00, 0x00, 0x18, 0x00,
  0x00, 0x00, 0xbd, 0x00, 0x00, 0x00, 0x00, 0xde, 0x00, 0x0d, 0xe2, 0x00,
  0x00, 0xef, 0x3c, 0x00, 0x21, 0x81, 0x00, 0x0e, 0x00, 0x00, 0x00, 0x00,
  0x00, 0x00, 0x00, 0x00, 0x00, 0x00, 0x19, 0x00, 0x00, 0x00, 0x34, 0x1d,
  0x00, 0x10, 0x28, 0x00, 0xde, 0x0c, 0x00, 0x00, 0x00, 0x1c, 0x2a, 0x00,
  0x00, 0x90, 0xdb, 0x2b, 0x00, 0x15, 0x2d, 0xee, 0x00, 0x27, 0x00, 0x00,
  0x17, 0xe1, 0x00, 0x00, 0x0d, 0x00, 0x26, 0x15, 0x27, 0x00, 0x0a, 0xfb,
  0x00, 0x16, 0x15, 0x0e, 0x13, 0x00, 0x1a, 0x36, 0x00, 0x00, 0xeb, 0x11,
  0x1e, 0x00, 0x00, 0x00, 0x0b, 0x14, 0x00, 0x00, 0x00, 0x16, 0x0f, 0x2e,
  0x00, 0x00, 0xd6, 0x00, 0x00, 0x00, 0x00, 0x00, 0xbf, 0x00, 0x00, 0x00,
  0x19, 0x1d, 0x00, 0x00, 0x00, 0x00, 0x00, 0x00, 0x00, 0x00, 0x00, 0xd9,
  0x00, 0x14, 0xea, 0x18, 0x00, 0x11, 0x00, 0x00, 0x10, 0xe4, 0x00, 0xd9,
  0x00, 0xef, 0x00, 0xc1, 0xfd, 0x00, 0x00, 0x2c, 0x00, 0xdd, 0x00, 0xf1,
  0x00, 0x00, 0x0f, 0x00, 0x38, 0x00, 0xd1, 0xdc, 0x1b, 0xc5, 0x00, 0x10,
  0x00, 0x00, 0xc7, 0xe5, 0x00, 0x00, 0x00, 0xb9, 0x00, 0xcc, 0x00, 0xcc,
  0x1f, 0xc6, 0x00, 0xe2, 0xce, 0x00, 0xcd, 0xc0, 0x00, 0xf8, 0x15, 0xd8,
  0xef, 0x00, 0x00, 0x2c, 0x00, 0xee, 0x00, 0xb0, 0xea, 0x00, 0x00, 0x00,
  0xc5, 0x18, 0x00, 0x00, 0x00, 0x00, 0x00, 0x44, 0x00, 0x00, 0x00, 0x00,
  0x00, 0x00, 0x00, 0xb2, 0x00, 0x00, 0x7f, 0x00, 0xa5, 0x00, 0xab, 0x00,
  0x00, 0xc6, 0xf7, 0x00, 0x00, 0x00, 0x00, 0x8a, 0x00, 0x00, 0x00, 0x00,
  0x00, 0x00, 0x00, 0x23, 0x00, 0x00, 0x24, 0x00, 0x00, 0x01, 0x00, 0x00,
  0x07, 0x00, 0x00, 0x1e, 0x00, 0x00, 0x7d, 0x00, 0x00, 0xc2, 0x00, 0xe8,
  0x06, 0x00, 0x4b, 0x00, 0x00, 0xc7, 0x00, 0x00, 0x00, 0x9d, 0x98, 0xee,
  0xc2, 0xbe, 0x00, 0x00, 0x00, 0x00, 0x00, 0x00, 0x9a, 0x00, 0x00, 0xee,
  0x00, 0xf2, 0x6b, 0x00, 0xe7, 0x1d, 0x00, 0x00, 0xed, 0xeb, 0x00, 0xd9,
  0x2b, 0x00, 0x00, 0x00, 0x3b, 0x31, 0x7f, 0x00, 0x00, 0x1a, 0x00, 0x00,
  0x00, 0x00, 0x00, 0xbd, 0x1c, 0x00, 0x00, 0xc3, 0x9c, 0x00, 0x00, 0xd9,
  0xe8, 0x09, 0x00, 0x00, 0x17, 0xf1, 0x00, 0x00, 0x27, 0xaf, 0xee, 0x00,
  0x00, 0x2c, 0x5f, 0xda, 0xe1, 0x00, 0x00, 0x00, 0x00, 0x00, 0x41, 0x00,
  0x3c, 0x00, 0x03, 0x23, 0xe2, 0xd0, 0x00, 0x00, 0x00, 0x31, 0xd7, 0x11,
  0x00, 0xdc, 0xe0, 0xee, 0x00, 0xe3, 0x4b, 0x00, 0x00, 0x14, 0x00, 0x00,
  0x00, 0x00, 0x0e, 0x00, 0x00, 0xd8, 0x00, 0xef, 0x00, 0xaa, 0x00, 0xc6,
  0x00, 0xd9, 0x00, 0x0c, 0x00, 0x15, 0x26, 0x00, 0x10, 0x1a, 0x00, 0x00,
  0xcf, 0xa3, 0x00, 0x00, 0xfe, 0x0c, 0xf2, 0x13, 0x23, 0x1e, 0x00, 0x00,
  0x00, 0x00, 0x00, 0x00, 0xc8, 0x00, 0x4e, 0x00, 0x00, 0xc1, 0x00, 0x18,
  0xe3, 0x00, 0x10, 0x00, 0x00, 0x00, 0x00, 0x00, 0x00, 0x0d, 0x00, 0x00,
  0x00, 0x00, 0xe4, 0x08, 0x00, 0xd3, 0x07, 0x00, 0x02, 0x00, 0x00, 0x00,
  0x00, 0x00, 0x00, 0x1a, 0x54, 0x11, 0x00, 0xef, 0x00, 0x00, 0x22, 0x00,
  0xe0, 0x06, 0x00, 0x4b, 0x20, 0xd2, 0x00, 0x00, 0xc7, 0xec, 0x00, 0x00,
  0x00, 0x00, 0x00, 0x00, 0x00, 0xef, 0x00, 0xc1, 0x00, 0xbe, 0x00, 0x00,
  0x00, 0x27, 0x00, 0xbe, 0xe8, 0x00, 0x00, 0x66, 0x00, 0x00, 0x44, 0x36,
  0x00, 0x00, 0x00, 0x00, 0x59, 0x00, 0x00, 0x00, 0xd4, 0x15, 0x00, 0x00,
  0xcc, 0x01, 0x00, 0x7f, 0x24, 0xce, 0x00, 0xba, 0x00, 0x00, 0xb4, 0x00,
  0x00, 0xd5, 0xd3, 0x00, 0xcb, 0xd1, 0xcb, 0x00, 0x00, 0x00, 0x00, 0xbe,
  0x00, 0x00, 0x00, 0x00, 0xc7, 0x00, 0x00, 0x00, 0xe4, 0x00, 0x9b, 0x00,
  0x00, 0x00, 0x00, 0x00, 0x00, 0x00, 0x00, 0x00, 0xb8, 0x00, 0x5b, 0xc0,
  0x21, 0x33, 0x00, 0x00, 0xe7, 0x00, 0x00, 0x3d, 0x00, 0x00, 0x00, 0x00,
  0x00, 0x00, 0x00, 0x00, 0xd0, 0x00, 0x9c, 0x00, 0xca, 0x00, 0x32, 0xd5,
  0xb6, 0x00, 0x00, 0x00, 0x00, 0xdb, 0x00, 0xd6, 0x0e, 0x00, 0x00, 0xab,
  0x00, 0x00, 0x00, 0x1e, 0xde, 0xf7, 0x00, 0x10, 0xc0, 0x0e, 0x00, 0xf6,
  0x22, 0x20, 0x00, 0x93, 0x00, 0x00, 0x81, 0x32, 0x24, 0x00, 0xd8, 0x16,
  0x4a, 0x00, 0x00, 0x00, 0x0f, 0x1d, 0x00, 0x00, 0x00, 0xdd, 0x00, 0x00,
  0x00, 0x00, 0x2b, 0x0b, 0x00, 0xdc, 0xf6, 0x13, 0x1f, 0x00, 0x00, 0x00,
  0x00, 0x9a, 0xb4, 0x2c, 0x0f, 0x00, 0x42, 0x00, 0x00, 0x00, 0x11, 0x00,
  0x00, 0x00, 0x00, 0x00, 0x00, 0x00, 0x00, 0x00, 0x00, 0x1e, 0x00, 0x0b,
  0x00, 0x00, 0xd8, 0x00, 0x2a, 0x00, 0x47, 0x87, 0x16, 0x00, 0xe7, 0x00,
  0xc0, 0xd6, 0x39, 0x00, 0x9a, 0xd1, 0xad, 0xbc, 0x00, 0x00, 0x00, 0x00,
  0x00, 0x00, 0x00, 0xbf, 0xb9, 0xa6, 0x00, 0x17, 0x00, 0x00, 0x00, 0x8a,
  0x00, 0xc6, 0x00, 0xc1, 0x00, 0x00, 0xf2, 0xb5, 0x00, 0x00, 0x5d, 0xc9,
  0xc2, 0x00, 0xe1, 0x00, 0x00, 0x00, 0x52, 0x9e, 0x23, 0xc8, 0xd6, 0x21,
  0xc5, 0xda, 0x00, 0xcf, 0x9e, 0x00, 0x00, 0x00, 0x00, 0x00, 0x00, 0x00,
  0x00, 0x00, 0x00, 0x00, 0x00, 0x00, 0x00, 0x48, 0x00, 0x00, 0x00, 0xa9,
  0x00, 0x29, 0x00, 0x00, 0xd1, 0x00, 0x00, 0x3f, 0x00, 0x39, 0x7f, 0x8d,
  0x00, 0x15, 0xb2, 0x00, 0x00, 0x0c, 0x48, 0xa5, 0x38, 0xa8, 0x00, 0xd9,
  0xc6, 0x00, 0x00, 0x13, 0x00, 0x00, 0xdf, 0x00, 0xc9, 0xd5, 0x00, 0xe0,
  0x00, 0x00, 0x9c, 0x00, 0xd2, 0x00, 0xf6, 0x37, 0xd2, 0x1c, 0x4f, 0x00,
  0x2d, 0x00, 0xf0, 0x00, 0x00, 0xd5, 0xe6, 0x00, 0x10, 0x0f, 0xa8, 0x00,
  0x00, 0x00, 0x00, 0x00, 0x00, 0x00, 0x00, 0x00, 0x00, 0x00, 0x00, 0x0f,
  0x00, 0x00, 0xc1, 0x00, 0x5f, 0x18, 0x00, 0x00, 0x14, 0x02, 0xd3, 0x31,
  0x00, 0x10, 0x5e, 0x00, 0x25, 0xd9, 0x00, 0x1d, 0x5a, 0x00, 0x00, 0x00,
  0x15, 0x00, 0xd0, 0x00, 0x00, 0x3f, 0x4c, 0x11, 0x12, 0x14, 0x00, 0x00,
  0xcb, 0x00, 0x00, 0x00, 0x00, 0x25, 0x00, 0x00, 0x21, 0x00, 0x00, 0xec,
  0x00, 0x24, 0xd9, 0x09, 0x00, 0x16, 0x0e, 0x00, 0xf0, 0x18, 0x20, 0x2d,
  0x23, 0x00, 0x14, 0x00, 0x00, 0x00, 0x00, 0x00, 0xe9, 0x00, 0x00, 0x00,
  0x00, 0x1c, 0xec, 0x63, 0x00, 0xd6, 0x00, 0x02, 0x00, 0xce, 0xe0, 0x00,
  0x0e, 0x00, 0x00, 0x00, 0x00, 0x00, 0x00, 0x00, 0x00, 0x23, 0x00, 0xec,
  0xdd, 0xe8, 0xee, 0x00, 0x00, 0xd0, 0xb7, 0x25, 0x00, 0xb9, 0x00, 0x00,
  0x00, 0x00, 0x00, 0xb9, 0xe9, 0x00, 0x00, 0x00, 0xaa, 0xd0, 0x10, 0x6a,
  0x00, 0x00, 0x8b, 0x7f, 0x00, 0x1f, 0xb3, 0x00, 0x00, 0x00, 0x2c, 0x00,
  0xec, 0x00, 0x90, 0xab, 0x9a, 0x98, 0x00, 0x00, 0x00, 0x00, 0xa9, 0x00,
  0x00, 0x96, 0xe9, 0x00, 0x91, 0xb0, 0x00, 0x00, 0x00, 0x1e, 0x00, 0x00,
  0x00, 0xa2, 0x00, 0x00, 0x00, 0x0d, 0x7f, 0x2b, 0x00, 0x00, 0x00, 0xd2,
  0x22, 0x26, 0x00, 0x00, 0x00, 0x9c, 0x8d, 0x00, 0xbc, 0x00, 0x00, 0x00,
  0x25, 0x00, 0x00, 0x00, 0x00, 0xa1, 0xde, 0x00, 0xb5, 0x09, 0x00, 0x00,
  0x00, 0x00, 0x17, 0x00, 0xb8, 0xd0, 0x3e, 0x00, 0x1e, 0x00, 0x00, 0x00,
  0x00, 0x00, 0x00, 0x1f, 0x00, 0x00, 0x00, 0x3c, 0x00, 0x00, 0x00, 0x00,
  0xf6, 0x29, 0x67, 0x00, 0x00, 0xa7, 0x00, 0x00, 0x00, 0xc8, 0x00, 0x00,
  0xcb, 0xc2, 0x00, 0x00, 0xc4, 0x00, 0x00, 0x00, 0xc3, 0x00, 0x00, 0x00,
  0x96, 0x00, 0x1e, 0x00, 0x00, 0x00, 0x00, 0x00, 0x00, 0x00, 0x00, 0xe6,
  0x00, 0x00, 0x00, 0x00, 0x00, 0x00, 0x77, 0x2d, 0x00, 0x32, 0x00, 0x00,
  0x00, 0x00, 0x4d, 0xa4, 0xef, 0x00, 0x00, 0x29, 0xad, 0x12, 0x15, 0x00,
  0x00, 0x00, 0x27, 0x00, 0x18, 0x20, 0x22, 0x00, 0x00, 0x00, 0xa0, 0x18,
  0xa2, 0x1d, 0x00, 0x00, 0x00, 0x1f, 0xe4, 0x00, 0x0a, 0x00, 0x00, 0x00,
  0xf9, 0xbc, 0x00, 0x00, 0x00, 0x00, 0x00, 0x00, 0xc3, 0xe6, 0x00, 0x00,
  0x00, 0xde, 0x17, 0x02, 0x0f, 0x00, 0xd5, 0xde, 0xb5, 0x00, 0x00, 0x00,
  0x00, 0xf3, 0x37, 0xe4, 0x00, 0x22, 0x00, 0x4c, 0xc8, 0x00, 0x00, 0x00,
  0xab, 0x00, 0x18, 0x00, 0x00, 0x00, 0xef, 0xce, 0x1a, 0x23, 0x00, 0x1a,
  0x00, 0xd5, 0x30, 0x0d, 0x00, 0xdc, 0x1b, 0x00, 0xe8, 0x00, 0x00, 0x00,
  0xdc, 0xda, 0xf1, 0x00, 0x00, 0x00, 0x00, 0x00, 0x9e, 0x00, 0x00, 0xec,
  0x8d, 0x00, 0x00, 0x00, 0x06, 0x11, 0x00, 0x00, 0xa7, 0xc1, 0x81, 0x00,
  0x00, 0x04, 0x00, 0x43, 0x00, 0x2a, 0x28, 0x00, 0x00, 0x00, 0xff, 0x33,
  0x00, 0xac, 0x20, 0x00, 0x00, 0x11, 0xd7, 0x00, 0x00, 0x00, 0xf8, 0x2d,
  0x00, 0x00, 0xf9, 0x1f, 0x00, 0x00, 0x00, 0x00, 0x00, 0xc9, 0x00, 0x00,
  0x00, 0xb6, 0x00, 0x00, 0x00, 0xcf, 0x00, 0x00, 0x00, 0x44, 0x1c, 0x00,
  0x00, 0xbe, 0xdf, 0x00, 0x00, 0xbe, 0x00, 0x00, 0x00, 0x00, 0xb0, 0x00,
  0xc0, 0x2a, 0x00, 0xc3, 0xab, 0x00, 0x00, 0x4a, 0x00, 0xec, 0x00, 0x00,
  0x00, 0xe5, 0x02, 0x98, 0xbe, 0x19, 0x00, 0x22, 0x26, 0xdf, 0x00, 0x00,
  0x00, 0xde, 0x00, 0x00, 0x00, 0xd5, 0x00, 0xef, 0x00, 0x00, 0x00, 0x00,
  0x00, 0x00, 0x19, 0x0f, 0x00, 0x00, 0x00, 0x00, 0x00, 0x15, 0xcd, 0xa3,
  0x00, 0x00, 0x00, 0x00, 0xea, 0x00, 0x3d, 0x00, 0xe5, 0xe9, 0x00, 0x00,
  0x24, 0x00, 0x43, 0x00, 0x00, 0x00, 0x00, 0x00, 0x00, 0x00, 0x1a, 0x1b,
  0x00, 0x00, 0xe2, 0x00, 0x00, 0x00, 0x00, 0xab, 0x00, 0xf2, 0x00, 0x0d,
  0xb4, 0xdd, 0x00, 0x00, 0x00, 0x00, 0x2f, 0xb6, 0x19, 0x00, 0x00, 0x00,
  0xd7, 0xd1, 0x00, 0x00, 0xc4, 0x00, 0x00, 0x00, 0xc0, 0x02, 0x00, 0xc5,
  0x14, 0x15, 0x53, 0x81, 0x1d, 0x89, 0xa3, 0x00, 0x00, 0xdf, 0x00, 0x00,
  0xf4, 0x0d, 0x00, 0x00, 0x00, 0x00, 0x00, 0x2a, 0x00, 0x00, 0x00, 0x09,
  0x00, 0x1a, 0x00, 0x3f, 0xec, 0x29, 0x2c, 0xee, 0x28, 0x36, 0xd7, 0x58,
  0x11, 0x00, 0x00, 0x00, 0x08, 0x00, 0x00, 0x00, 0x26, 0x00, 0x00, 0x00,
  0x33, 0x00, 0xe3, 0x00, 0x2c, 0x00, 0x48, 0x00, 0x00, 0x00, 0x00, 0x00,
  0x00, 0x00, 0xb8, 0x00, 0xb6, 0x00, 0x00, 0x23, 0x00, 0x00, 0x00, 0xdd,
  0x06, 0x08, 0xcc, 0x00, 0x00, 0x00, 0x36, 0x6e, 0xe2, 0x00, 0x00, 0x00,
  0x1b, 0xe4, 0x00, 0xe6, 0x00, 0x00, 0x00, 0x4c, 0x34, 0x00, 0x00, 0x00,
  0x00, 0x3e, 0x00, 0x00, 0x00, 0x00, 0x00, 0x00, 0x06, 0xbe, 0x00, 0x00,
  0xe0, 0x00, 0x00, 0x00, 0x00, 0xc3, 0x00, 0x05, 0xb4, 0x00, 0x00, 0xb8,
  0x00, 0xc1, 0x00, 0xbb, 0x00, 0x00, 0xda, 0x58, 0x00, 0xcf, 0x00, 0x1d,
  0xcc, 0x00, 0x33, 0x00, 0x00, 0xed, 0x00, 0xd1, 0x00, 0xed, 0x00, 0x7f,
  0x00, 0x00, 0xce, 0x00, 0x00, 0x00, 0xf8, 0x09, 0x00, 0xcf, 0x00, 0x24,
  0x00, 0x1c, 0x27, 0x00, 0x00, 0x24, 0xee, 0xd4, 0x00, 0x81, 0x96, 0x0e,
  0x00, 0x1a, 0x3b, 0xe2, 0x00, 0x18, 0x00, 0xa2, 0x19, 0x00, 0x00, 0x00,
  0x00, 0xb9, 0x00, 0x0a, 0x00, 0x00, 0x00, 0x00, 0xed, 0xd7, 0xc4, 0xd5,
  0xcd, 0x00, 0x00, 0x93, 0x00, 0xd7, 0x00, 0xd2, 0x00, 0x00, 0xf1, 0x11,
  0x00, 0x00, 0x18, 0xad, 0x00, 0x00, 0x0e, 0x00, 0xc7, 0x91, 0xc5, 0x13,
  0x00, 0x00, 0x25, 0xf3, 0xcb, 0x00, 0x00, 0xe2, 0x00, 0x16, 0x00, 0xe9,
  0x12, 0x00, 0x00, 0x1c, 0x00, 0x00, 0x00, 0x00, 0x1a, 0x11, 0xe1, 0xe9,
  0xe4, 0x00, 0x1a, 0x04, 0x00, 0xd4, 0x00, 0x0e, 0xc4, 0x1d, 0x0b, 0x00,
  0xd1, 0x25, 0xf7, 0x00, 0x00, 0x21, 0x16, 0x00, 0x00, 0x00, 0x00, 0x00,
  0x00, 0x00, 0x0a, 0x00, 0xce, 0x2b, 0x20, 0x00, 0x00, 0x00, 0x28, 0x00,
  0x00, 0x00, 0x00, 0x00, 0x00, 0x00, 0x00, 0x12, 0xf8, 0x00, 0x00, 0x00,
  0x00, 0x00, 0x00, 0x23, 0x18, 0x00, 0x0b, 0xf2, 0xbf, 0x0f, 0x00, 0x2f,
  0x0d, 0x00, 0x00, 0x17, 0x00, 0x00, 0xd4, 0x00, 0x00, 0x00, 0x17, 0x15,
  0x00, 0x00, 0xe8, 0x1f, 0x3b, 0x00, 0x00, 0x00, 0x22, 0xd3, 0x00, 0x00,
  0x00, 0x31, 0x00, 0x24, 0x00, 0x0d, 0xb2, 0x00, 0x00, 0x00, 0x00, 0x32,
  0x1d, 0x0c, 0x00, 0x2f, 0x00, 0x09, 0x3f, 0x00, 0x12, 0x00, 0xa6, 0xf0,
  0x8b, 0x1a, 0x22, 0x00, 0x12, 0x00, 0xa4, 0x7f, 0x00, 0x00, 0x00, 0x00,
  0x2c, 0x1f, 0xb4, 0x35, 0x0c, 0x2b, 0x00, 0x33, 0xea, 0x2b, 0x00, 0x6a,
  0x00, 0xe3, 0x00, 0xee, 0x5d, 0x43, 0x00, 0x00, 0xdd, 0x00, 0x0c, 0x58,
  0x00, 0x03, 0x00, 0x48, 0x5c, 0x00, 0x00, 0x00, 0xda, 0xe7, 0x98, 0x00,
  0x5a, 0x95, 0x00, 0x00, 0x95, 0xb4, 0x97, 0x00, 0x00, 0x00, 0xf3, 0x9c,
  0x63, 0xcc, 0x00, 0x96, 0x00, 0x00, 0xbd, 0x00, 0x00, 0x00, 0xb7, 0x00,
  0xe4, 0x00, 0x00, 0x97, 0x6d, 0xa7, 0x00, 0x00, 0x00, 0x9c, 0x00, 0xb2,
  0x8e, 0x8d, 0xb5, 0x82, 0x00, 0x32, 0x00, 0x00, 0xe1, 0xe8, 0x00, 0xf5,
  0x00, 0x21, 0x00, 0x00, 0x1b, 0x00, 0x00, 0x00, 0x09, 0xd5, 0x00, 0xf0,
  0x00, 0x00, 0x00, 0x00, 0x17, 0x00, 0xed, 0x4a, 0x00, 0x0b, 0x00, 0x00,
  0xe6, 0x00, 0x00, 0x0d, 0x00, 0xe4, 0x00, 0xb1, 0x20, 0x00, 0x00, 0x00,
  0xc0, 0xd2, 0x1d, 0x1f, 0x00, 0x0c, 0x00, 0x00, 0x00, 0x18, 0x00, 0x00,
  0x06, 0x23, 0x13, 0x00, 0x18, 0x1a, 0x00, 0x00, 0x05, 0xad, 0x29, 0x00,
  0x00, 0x00, 0x99, 0x26, 0x29, 0x27, 0x00, 0x00, 0x1b, 0xef, 0x00, 0x37,
  0xdd, 0x00, 0x00, 0x0a, 0x00, 0x00, 0x00, 0x23, 0x57, 0x00, 0x00, 0x00,
  0x00, 0xdc, 0x00, 0x00, 0x00, 0x00, 0x00, 0x00, 0x00, 0x07, 0x00, 0xc3,
  0xb8, 0x00, 0x00, 0x2e, 0xf2, 0x10, 0x00, 0x3e, 0x08, 0xaf, 0x00, 0x00,
  0x00, 0x24, 0x00, 0x00, 0x00, 0x00, 0x00, 0x00, 0x00, 0x15, 0x00, 0x5d,
  0x00, 0x9c, 0x00, 0x00, 0x3b, 0x00, 0x81, 0x00, 0x00, 0x27, 0x00, 0x00,
  0x14, 0x29, 0x00, 0x00, 0x22, 0x00, 0x00, 0x0f, 0xca, 0x00, 0x00, 0x00,
  0x00, 0x1a, 0x25, 0x00, 0x2e, 0x00, 0x1e, 0x00, 0xcf, 0x00, 0x00, 0x2f,
  0xd2, 0x00, 0x00, 0x00, 0xaf, 0x26, 0x00, 0x9a, 0x26, 0x00, 0x00, 0x00,
  0x00, 0x00, 0x00, 0x00, 0x00, 0x00, 0x00, 0x17, 0x26, 0x00, 0xc9, 0xcf,
  0x0b, 0x00, 0xbe, 0x00, 0x00, 0xe4, 0x4b, 0x13, 0x00, 0xf0, 0x00, 0xe0,
  0x00, 0x25, 0x00, 0x00, 0x2e, 0x00, 0x00, 0x00, 0x18, 0x00, 0x93, 0x00,
  0x0b, 0x18, 0x00, 0x20, 0x9a, 0x00, 0x00, 0xd7, 0x00, 0x1a, 0xd8, 0x29,
  0x08, 0x00, 0x00, 0x00, 0x11, 0x00, 0x00, 0x3c, 0xd3, 0x00, 0x29, 0x30,
  0x1c, 0x00, 0x00, 0x3b, 0x00, 0x00, 0xd9, 0xf3, 0x19, 0x00, 0x00, 0x00,
  0x9e, 0x00, 0x00, 0x00, 0xbe, 0x05, 0x00, 0x00, 0x00, 0x00, 0xa7, 0x00,
  0x0e, 0x00, 0x00, 0x00, 0x00, 0x00, 0x14, 0x00, 0xc4, 0x00, 0x00, 0x00,
  0x00, 0x00, 0x91, 0x00, 0x5f, 0x00, 0xaf, 0xe6, 0x00, 0x00, 0xe0, 0x00,
  0x00, 0x00, 0x00, 0x00, 0x00, 0x00, 0x81, 0xc3, 0x00, 0x1b, 0x00, 0x00,
  0x00, 0x00, 0x0e, 0x00, 0x1f, 0x00, 0xe7, 0x00, 0x07, 0x00, 0x00, 0x10,
  0x00, 0x0e, 0x04, 0xeb, 0x1e, 0x00, 0xdc, 0x00, 0x00, 0x00, 0xde, 0x1c,
  0x06, 0x18, 0x00, 0x00, 0x00, 0x00, 0x00, 0x00, 0x47, 0x21, 0x22, 0x00,
  0x20, 0x00, 0x00, 0x33, 0x00, 0x00, 0x53, 0x21, 0x00, 0x1d, 0xed, 0x00,
  0x00, 0x00, 0x00, 0x00, 0x12, 0x00, 0x00, 0x4e, 0x00, 0xe0, 0x00, 0xe6,
  0x37, 0x00, 0xbb, 0xee, 0xde, 0x11, 0x09, 0x00, 0x00, 0x00, 0x00, 0x4b,
  0x00, 0x00, 0x25, 0x13, 0x00, 0x38, 0x97, 0xe3, 0x14, 0x0c, 0x28, 0x75,
  0x00, 0x00, 0xd9, 0x00, 0x44, 0x00, 0x00, 0xf4, 0xec, 0x00, 0x00, 0x00,
  0x00, 0xb3, 0x00, 0x00, 0xb4, 0x00, 0x00, 0x00, 0xd0, 0x00, 0x00, 0x00,
  0x00, 0xd1, 0x00, 0xc0, 0x0c, 0xc0, 0xd1, 0x00, 0xbd, 0x00, 0x00, 0x28,
  0xd8, 0x00, 0x00, 0x00, 0x00, 0xc3, 0x00, 0xe9, 0x00, 0x00, 0xda, 0x00,
  0xc6, 0x00, 0x00, 0x00, 0x00, 0x00, 0x7f, 0xce, 0x00, 0x00, 0x00, 0x28,
  0x81, 0x00, 0x21, 0x2a, 0xea, 0x14, 0xc1, 0x00, 0x00, 0x00, 0x96, 0x08,
  0x00, 0x2a, 0xe0, 0x00, 0x00, 0x00, 0x27, 0x10, 0xf9, 0x00, 0x33, 0x00,
  0x43, 0x00, 0xe0, 0x00, 0x51, 0x00, 0x00, 0x00, 0xe2, 0x00, 0x00, 0x00,
  0x00, 0x00, 0x43, 0x00, 0x00, 0x00, 0x8c, 0x00, 0x00, 0xae, 0xb5, 0xb6,
  0x30, 0x00, 0xe2, 0x00, 0xac, 0xd1, 0xbe, 0x00, 0xda, 0x4c, 0x00, 0x00,
  0x33, 0xd3, 0x00, 0xc4, 0x00, 0x00, 0x00, 0xf2, 0xd0, 0x00, 0xf6, 0x00,
  0x00, 0x2c, 0x00, 0x00, 0x00, 0x00, 0x00, 0xee, 0xf3, 0x00, 0x00, 0x00,
  0x00, 0x00, 0x00, 0xc2, 0x00, 0x23, 0x00, 0x00, 0xba, 0x00, 0x00, 0x00,
  0x46, 0x00, 0x00, 0x00, 0x00, 0x00, 0x4a, 0x00, 0x00, 0x00, 0x00, 0x40,
  0x90, 0xd7, 0x00, 0x00, 0x39, 0x00, 0x00, 0x91, 0x00, 0xf0, 0x38, 0x00,
  0x00, 0x41, 0x00, 0x00, 0x00, 0xeb, 0xd3, 0x00, 0xec, 0xd2, 0x00, 0x00,
  0xe4, 0x00, 0x00, 0x08, 0x00, 0x00, 0x00, 0x00, 0x00, 0x1b, 0xf7, 0xf1,
  0x00, 0x27, 0x24, 0x00, 0xf1, 0x00, 0x10, 0x46, 0x00, 0xe4, 0xbe, 0x00,
  0x37, 0x2e, 0x00, 0xf7, 0x00, 0x1d, 0x00, 0x2a, 0x00, 0x35, 0x00, 0x00,
  0x24, 0x00, 0x00, 0x25, 0x00, 0x00, 0x33, 0x00, 0xe4, 0x00, 0x00, 0xe7,
  0x00, 0xf2, 0x35, 0x2c, 0x42, 0x00, 0xb0, 0xea, 0x00, 0x00, 0x00, 0x00,
  0xa1, 0x00, 0x09, 0x00, 0xdd, 0x15, 0x00, 0x00, 0x00, 0x00, 0x00, 0xd4,
  0x00, 0x00, 0x38, 0x00, 0x00, 0x02, 0xda, 0x00, 0x00, 0x00, 0x15, 0x00,
  0x00, 0x00, 0x00, 0x00, 0xec, 0x00, 0x00, 0xd5, 0xb1, 0x00, 0xbf, 0x00,
  0x01, 0xdd, 0x1f, 0x00, 0x00, 0x0e, 0x9f, 0x00, 0x00, 0x00, 0x00, 0x03,
  0x81, 0xc2, 0x00, 0x00, 0xc4, 0x00, 0xb8, 0xde, 0x00, 0x00, 0x00, 0x00,
  0x00, 0xcc, 0xf6, 0x00, 0x00, 0xc4, 0x00, 0xb5, 0xc6, 0xd0, 0x00, 0x00,
  0x06, 0x00, 0x9e, 0x00, 0x00, 0x00, 0x00, 0x2a, 0x00, 0x0b, 0xf9, 0xcc,
  0x14, 0x00, 0x00, 0xbf, 0x00, 0x00, 0x00, 0x00, 0x00, 0xe3, 0x00, 0x00,
  0x00, 0x00, 0x11, 0x00, 0x23, 0x1d, 0x00, 0x05, 0x00, 0x00, 0x00, 0x12,
  0x00, 0x00, 0x00, 0x00, 0xe9, 0xec, 0x08, 0x00, 0x05, 0xd6, 0x00, 0x00,
  0x00, 0x0d, 0x22, 0xe8, 0x00, 0x00, 0xe5, 0x00, 0x00, 0xc8, 0x00, 0x00,
  0x00, 0xc4, 0xeb, 0x00, 0xef, 0xdb, 0x00, 0x00, 0x00, 0x00, 0x00, 0x00,
  0xcd, 0x00, 0x00, 0x03, 0x14, 0x1f, 0x00, 0x2e, 0x00, 0x81, 0xcb, 0x00,
  0x00, 0x15, 0xd4, 0x1f, 0xe3, 0x00, 0x00, 0xf1, 0x00, 0x00, 0x00, 0xe7,
  0xe2, 0xce, 0x00, 0x00, 0x00, 0x00, 0xe5, 0xe4, 0x3d, 0x00, 0x00, 0x00,
  0x00, 0xc3, 0x00, 0xf8, 0x00, 0x1c, 0x3b, 0x00, 0x0a, 0xe5, 0x00, 0x00,
  0x00, 0x00, 0x00, 0x1b, 0x00, 0x16, 0x00, 0x00, 0x00, 0xc0, 0x26, 0x19,
  0x21, 0x1b, 0x00, 0x00, 0x00, 0x00, 0x00, 0x00, 0x21, 0xf5, 0x00, 0x00,
  0x00, 0xcc, 0x00, 0x1c, 0x00, 0x00, 0xd3, 0x00, 0x27, 0x00, 0x00, 0x00,
  0x18, 0x00, 0xe1, 0x3d, 0x00, 0x00, 0x36, 0x16, 0xca, 0x00, 0x00, 0xeb,
  0x10, 0x00, 0x00, 0x00, 0x00, 0x00, 0xaa, 0x13, 0xa9, 0x00, 0x2a, 0x00,
  0x00, 0x00, 0x00, 0x0f, 0x00, 0xd9, 0x00, 0xb3, 0x06, 0xb5, 0x00, 0xb6,
  0xb0, 0x00, 0x00, 0xdf, 0x00, 0x00, 0x00, 0xe9, 0x5d, 0x0d, 0x00, 0x3b,
  0x00, 0x0b, 0x00, 0x00, 0x08, 0x00, 0x00, 0x00, 0x00, 0x00, 0x00, 0x1c,
  0xe8, 0x00, 0x00, 0x00, 0x00, 0x24, 0x00, 0x00, 0x00, 0xb9, 0x45, 0x00,
  0x00, 0x00, 0x00, 0x00, 0x33, 0x28, 0x19, 0x53, 0x27, 0x00, 0xd9, 0x00,
  0x3c, 0x90, 0x36, 0x00, 0x00, 0x2c, 0x00, 0x00, 0x15, 0x00, 0x00, 0x00,
  0x00, 0x3c, 0x00, 0x7f, 0x2e, 0x00, 0x15, 0x1e, 0x00, 0x00, 0x28, 0x00,
  0xd5, 0xe7, 0xea, 0x00, 0xdd, 0x2f, 0x3d, 0xf9, 0x3b, 0x00, 0xca, 0x00,
  0x00, 0x27, 0x00, 0x00, 0xd6, 0x00, 0x00, 0x00, 0x00, 0x00, 0xd6, 0x00,
  0x36, 0xe5, 0x00, 0xa2, 0x00, 0x00, 0x00, 0x00, 0xb9, 0x03, 0x06, 0x6f,
  0xb8, 0x05, 0x9c, 0x00, 0x00, 0x14, 0x00, 0x00, 0x00, 0x00, 0x00, 0x00,
  0xca, 0x39, 0x00, 0x00, 0x00, 0x00, 0x5b, 0x9a, 0x38, 0x95, 0xdd, 0x00,
  0xe5, 0x21, 0x46, 0xd7, 0x00, 0x00, 0x00, 0xda, 0x00, 0xe5, 0x00, 0xc6,
  0x18, 0x00, 0x00, 0x00, 0x00, 0x00, 0x00, 0xe3, 0x00, 0x00, 0xc0, 0x00,
  0x00, 0xd5, 0xd9, 0x00, 0x00, 0x00, 0x00, 0x00, 0x00, 0x2d, 0x5a, 0x09,
  0x81, 0x2b, 0xee, 0x00, 0x00, 0x00, 0x42, 0x99, 0x00, 0x00, 0x00, 0x1c,
  0xe4, 0x00, 0x00, 0x00, 0x00, 0x15, 0x00, 0xdd, 0xd7, 0x00, 0xf7, 0x00,
  0xed, 0xc4, 0x00, 0x00, 0xed, 0x00, 0x00, 0x00, 0x00, 0xf9, 0xfd, 0x00,
  0x00, 0x00, 0xd5, 0xe2, 0x00, 0xd0, 0x00, 0x00, 0x00, 0x1a, 0x39, 0xe0,
  0x00, 0x16, 0xda, 0xaf, 0x14, 0x00, 0x00, 0x00, 0x12, 0x00, 0x00, 0x00,
  0x00, 0xe0, 0x1e, 0xd0, 0xda, 0x00, 0xd4, 0x00, 0x00, 0xd7, 0x00, 0xc0,
  0x00, 0x12, 0xe9, 0x00, 0x00, 0x00, 0x00, 0x3d, 0x00, 0x00, 0x4b, 0x00,
  0x00, 0x31, 0x00, 0x00, 0x00, 0x00, 0x1c, 0x00, 0x00, 0x00, 0x00, 0x2d,
  0x00, 0x00, 0xe5, 0x00, 0x2f, 0x00, 0x00, 0x00, 0x04, 0x00, 0xda, 0xe5,
  0x00, 0x00, 0x00, 0x27, 0x03, 0x29, 0x00, 0x00, 0x22, 0xe7, 0x00, 0x00,
  0x00, 0x00, 0x00, 0xe3, 0x00, 0xc7, 0x00, 0xd5, 0x00, 0x00, 0xb2, 0x00,
  0x00, 0xcd, 0x00, 0xa3, 0xc2, 0x00, 0x2e, 0x00, 0x09, 0x00, 0x00, 0x1e,
  0x00, 0x13, 0x00, 0x00, 0x11, 0x24, 0x00, 0x3d, 0x00, 0x00, 0xd2, 0x06,
  0xd5, 0x00, 0x00, 0x00, 0x00, 0x2f, 0x00, 0xe1, 0x2d, 0x00, 0x00, 0x3d,
  0x0a, 0xc3, 0x00, 0x1b, 0x00, 0x24, 0xae, 0x26, 0x00, 0xfd, 0xf3, 0x00,
  0xf8, 0x26, 0xdd, 0x00, 0x1e, 0x1b, 0x00, 0x00, 0x00, 0x00, 0x00, 0xcb,
  0x00, 0x00, 0x00, 0x00, 0x00, 0x00, 0x00, 0x00, 0x00, 0xb0, 0xe3, 0xda,
  0x00, 0x19, 0x00, 0x0e, 0xd5, 0x00, 0x00, 0x00, 0xeb, 0x17, 0x00, 0x00,
  0xed, 0x81, 0x00, 0x00, 0x2f, 0x00, 0xb9, 0x00, 0x00, 0x00, 0x1a, 0x00,
  0x00, 0xf2, 0x09, 0x00, 0x29, 0xae, 0x00, 0xeb, 0x00, 0x0f, 0x00, 0x1c,
  0x00, 0x27, 0x00, 0xe3, 0x29, 0x00, 0x00, 0x00, 0x2e, 0x00, 0x00, 0x28,
  0x32, 0x27, 0x5b, 0x00, 0x00, 0x28, 0x00, 0x00, 0x1e, 0xee, 0x00, 0x00,
  0x00, 0x00, 0x9f, 0x00, 0x00, 0x00, 0xf7, 0x00, 0x00, 0xe5, 0x00, 0x00,
  0xe6, 0x0e, 0x00, 0x00, 0x00, 0xd7, 0x00, 0x00, 0x00, 0x00, 0x00, 0x00,
  0xc0, 0x1d, 0x00, 0x00, 0x20, 0x00, 0x44, 0xd9, 0x1f, 0x00, 0x00, 0x2f,
  0x10, 0x1c, 0x00, 0x00, 0xa1, 0x21, 0x00, 0x00, 0x08, 0x00, 0x00, 0x00,
  0x0c, 0xc3, 0xeb, 0xbb, 0xbb, 0xc9, 0xbf, 0x00, 0xc0, 0xc9, 0xf4, 0x00,
  0xd7, 0x09, 0xa8, 0x17, 0x00, 0x00, 0xe2, 0xe0, 0x14, 0x24, 0x00, 0x00,
  0x00, 0x00, 0xca, 0x00, 0x00, 0x11, 0x3e, 0x00, 0x00, 0x00, 0x81, 0x00,
  0x00, 0x0d, 0x00, 0xc2, 0x00, 0x00, 0x00, 0x00, 0x00, 0xbf, 0x00, 0xc8,
  0x00, 0xf4, 0xb4, 0x00, 0xc2, 0x00, 0xe8, 0xe5, 0xa5, 0x00, 0x00, 0xe7,
  0x00, 0x00, 0x00, 0x00, 0x00, 0xcf, 0x00, 0xca, 0x00, 0xc1, 0x00, 0x00,
  0x00, 0xf5, 0x00, 0xd9, 0xc8, 0x00, 0x00, 0x00, 0x00, 0x00, 0xee, 0x14,
  0x25, 0x00, 0x70, 0xe3, 0xcd, 0x1d, 0x00, 0x00, 0x00, 0x00, 0x5b, 0x9d,
  0x00, 0x00, 0x0c, 0x00, 0x13, 0x27, 0x00, 0x00, 0x00, 0x00, 0xd4, 0x00,
  0x00, 0xdf, 0x00, 0x00, 0x31, 0xab, 0x00, 0x0a, 0x00, 0x00, 0x00, 0xf9,
  0xb2, 0x00, 0x00, 0x00, 0xff, 0x17, 0x00, 0x00, 0x00, 0x00, 0xca, 0x21,
  0xcf, 0x1f, 0x78, 0x00, 0x00, 0xed, 0x00, 0xe1, 0x00, 0x00, 0x00, 0x81,
  0x2b, 0x00, 0xdb, 0x1a, 0x00, 0x00, 0x00, 0x08, 0xe7, 0xe6, 0x00, 0x00,
  0x00, 0x00, 0x00, 0x00, 0xe6, 0xce, 0x00, 0x00, 0x95, 0x14, 0x00, 0x00,
  0xc9, 0x25, 0x00, 0x00, 0x00, 0x00, 0x00, 0xba, 0x00, 0x00, 0x00, 0x00,
  0x00, 0x27, 0x00, 0x17, 0xe0, 0x00, 0x00, 0x00, 0x26, 0xe8, 0x00, 0x00,
  0x00, 0x00, 0x21, 0x14, 0x00, 0x00, 0xd1, 0x15, 0xf6, 0x14, 0x21, 0x00,
  0xd9, 0xde, 0x00, 0x00, 0x00, 0x17, 0x00, 0xe9, 0x00, 0x20, 0x00, 0xdd,
  0x00, 0x1b, 0x00, 0x16, 0x11, 0x07, 0x00, 0x00, 0x00, 0x15, 0x53, 0xea,
  0x38, 0x1b, 0x00, 0x00, 0x00, 0x00, 0x20, 0x00, 0x00, 0x00, 0x00, 0x00,
  0x32, 0xa3, 0x00, 0x1e, 0x64, 0x00, 0x00, 0x00, 0xdb, 0x00, 0xc1, 0x00,
  0x00, 0x00, 0x00, 0x4c, 0x24, 0x00, 0x00, 0x00, 0xff, 0x00, 0x13, 0x00,
  0x00, 0xf7, 0xf0, 0x00, 0x00, 0x00, 0x0a, 0x34, 0x12, 0x9e, 0x1b, 0xce,
  0x00, 0xce, 0x00, 0x00, 0xf9, 0x00, 0x00, 0x00, 0x00, 0xce, 0xe3, 0x00,
  0xd8, 0x00, 0x55, 0x00, 0x00, 0xd6, 0x8e, 0x15, 0x28, 0x00, 0x00, 0x00,
  0x00, 0x00, 0xbf, 0x0e, 0x00, 0xe9, 0x77, 0x12, 0x9e, 0x00, 0x95, 0x00,
  0x00, 0x00, 0x00, 0x49, 0x21, 0x00, 0x00, 0x00, 0x0e, 0xd6, 0x00, 0x00,
  0x22, 0x00, 0xc7, 0x00, 0x00, 0x00, 0x19, 0x00, 0x0d, 0xe7, 0x00, 0x00,
  0x3d, 0x00, 0x56, 0xf6, 0x7f, 0x2e, 0x00, 0xc0, 0x00, 0x00, 0xec, 0x00,
  0x0c, 0xe6, 0x00, 0x00, 0x3e, 0x00, 0x00, 0x10, 0xb9, 0x00, 0x00, 0x36,
  0x5a, 0x18, 0xe3, 0xa8, 0x0f, 0x00, 0x00, 0x00, 0x00, 0x00, 0x00, 0xe5,
  0xa1, 0xb0, 0x00, 0xfd, 0x00, 0x00, 0x00, 0x93, 0xea, 0x00, 0xcc, 0xb0,
  0xa2, 0x5b, 0x6c, 0x00, 0x00, 0x00, 0x00, 0x00, 0x00, 0x00, 0xaa, 0x00,
  0x00, 0x00, 0x00, 0x00, 0x00, 0x00, 0x00, 0xdb, 0x2f, 0x1e, 0x00, 0x00,
  0xd4, 0x29, 0x33, 0x44, 0x21, 0x45, 0x00, 0x6e, 0x1b, 0x00, 0x0d, 0x2a,
  0xef, 0x38, 0x00, 0x00, 0xe0, 0x00, 0x00, 0x1f, 0x00, 0x00, 0xc5, 0x00,
  0x3b, 0x00, 0x27, 0x00, 0x0b, 0x00, 0x00, 0x05, 0x0d, 0x28, 0x0c, 0x00,
  0x00, 0x00, 0x00, 0x3f, 0x00, 0x03, 0x00, 0x0e, 0x00, 0x00, 0x00, 0x00,
  0xb7, 0xb7, 0xdd, 0xf7, 0x00, 0x03, 0xaa, 0x00, 0x00, 0xaa, 0x00, 0xc0,
  0xeb, 0x00, 0x81, 0x00, 0x00, 0x00, 0x1d, 0x00, 0x00, 0x00, 0x00, 0x00,
  0x00, 0x00, 0x00, 0xc8, 0x00, 0x20, 0x00, 0x00, 0xa3, 0x00, 0xe5, 0x48,
  0x00, 0x00, 0x00, 0x62, 0x00, 0x00, 0x00, 0x00, 0x0d, 0x1b, 0x00, 0xc8,
  0x00, 0x00, 0x00, 0x00, 0x10, 0x00, 0x00, 0xe2, 0x1e, 0x00, 0x26, 0x0b,
  0x45, 0xf6, 0x00, 0xe6, 0x00, 0x00, 0x00, 0x00, 0x00, 0xf3, 0xc5, 0x00,
  0x2e, 0x00, 0xf8, 0xfa, 0x34, 0x00, 0xd7, 0xc9, 0x00, 0x00, 0x00, 0x00,
  0xdb, 0xdb, 0x00, 0x00, 0x00, 0x00, 0x24, 0xca, 0x00, 0xf8, 0x00, 0x2e,
  0x00, 0x00, 0x00, 0xce, 0x00, 0x00, 0x00, 0x0a, 0xbb, 0x00, 0x00, 0xdb,
  0xac, 0xdd, 0x00, 0xe5, 0x49, 0x14, 0x19, 0x00, 0x00, 0xd6, 0xcd, 0x00,
  0x13, 0x00, 0x00, 0x21, 0xf6, 0xd7, 0x00, 0x12, 0x2f, 0xec, 0x00, 0x00,
  0x1e, 0xdd, 0xd8, 0x18, 0x00, 0x00, 0x00, 0x0f, 0x31, 0x32, 0xae, 0x28,
  0x0d, 0x1e, 0xf2, 0x58, 0x1b, 0x00, 0x03, 0x00, 0x00, 0x00, 0x0f, 0x0b,
  0x44, 0x00, 0xc3, 0x00, 0x00, 0x00, 0x19, 0x00, 0x1b, 0x28, 0x00, 0x7f,
  0x31, 0x00, 0xce, 0xe6, 0x00, 0x1c, 0x00, 0x00, 0x00, 0x00, 0x18, 0x00,
  0x00, 0x1b, 0x00, 0x00, 0x00, 0xcc, 0x00, 0x07, 0xf6, 0x00, 0x00, 0x00,
  0x7d, 0x1a, 0x00, 0x00, 0xe8, 0x09, 0xfe, 0xd9, 0xd2, 0x32, 0x00, 0x10,
  0x00, 0xb0, 0xea, 0x00, 0x3d, 0x00, 0x00, 0xc0, 0x00, 0x00, 0x00, 0xc7,
  0x00, 0x5b, 0x31, 0x04, 0x00, 0xd1, 0x00, 0x00, 0x00, 0xd1, 0x00, 0x43,
  0x00, 0xd9, 0x18, 0x00, 0x09, 0x25, 0x00, 0x00, 0x00, 0x27, 0x00, 0x00,
  0x0b, 0x00, 0x15, 0xbf, 0x2c, 0x23, 0x00, 0x00, 0x00, 0xcf, 0x00, 0x00,
  0x00, 0x05, 0x10, 0x00, 0xd1, 0x15, 0x08, 0x81, 0x15, 0x00, 0xe1, 0xb1,
  0x00, 0x00, 0x00, 0x00, 0xd9, 0x00, 0x00, 0xb7, 0xd9, 0x00, 0xc9, 0x00,
  0x00, 0xd9, 0x00, 0x00, 0x00, 0x00, 0x00, 0x00, 0x15, 0x00, 0x00, 0xdb,
  0x00, 0xe2, 0x00, 0x00, 0x00, 0x08, 0x00, 0x00, 0x00, 0x00, 0x91, 0x00,
  0x00, 0x00, 0x00, 0x37, 0xa3, 0x1e, 0x1a, 0x00, 0x00, 0x1f, 0x00, 0x1d,
  0x00, 0xc2, 0xb6, 0x12, 0x00, 0x00, 0x00, 0x00, 0x00, 0x00, 0x00, 0x00,
  0x00, 0x00, 0x25, 0x00, 0x00, 0x00, 0x00, 0x00, 0x2a, 0xdf, 0xff, 0xff,
  0x04, 0x00, 0x00, 0x00, 0x80, 0x00, 0x00, 0x00, 0x7b, 0xef, 0xff, 0xff,
  0x30, 0xf4, 0xff, 0xff, 0x16, 0x02, 0x00, 0x00, 0xb1, 0x08, 0x00, 0x00,
  0x80, 0xf5, 0xff, 0xff, 0x11, 0xfd, 0xff, 0xff, 0x05, 0xfd, 0xff, 0xff,
  0x9d, 0xf6, 0xff, 0xff, 0xeb, 0xf1, 0xff, 0xff, 0x29, 0x00, 0x00, 0x00,
  0x1e, 0xf1, 0xff, 0xff, 0xf6, 0xec, 0xff, 0xff, 0x61, 0xed, 0xff, 0xff,
  0x06, 0x03, 0x00, 0x00, 0x80, 0xf8, 0xff, 0xff, 0xa5, 0xf3, 0xff, 0xff,
  0xb1, 0xf9, 0xff, 0xff, 0x10, 0xe7, 0xff, 0xff, 0xbc, 0xeb, 0xff, 0xff,
  0xa4, 0x00, 0x00, 0x00, 0x40, 0x03, 0x00, 0x00, 0xd3, 0x0c, 0x00, 0x00,
  0x60, 0xeb, 0xff, 0xff, 0x62, 0xe7, 0xff, 0xff, 0xa3, 0xfe, 0xff, 0xff,
  0xd4, 0xe5, 0xff, 0xff, 0xc7, 0xfb, 0xff, 0xff, 0xfc, 0xf6, 0xff, 0xff,
  0xdf, 0xe7, 0xff, 0xff, 0xe4, 0xe0, 0xff, 0xff, 0x21, 0xe8, 0xff, 0xff,
  0xf5, 0xf1, 0xff, 0xff, 0xb6, 0xdf, 0xff, 0xff, 0x04, 0x00, 0x00, 0x00,
  0x40, 0x1f, 0x00, 0x00, 0x00, 0xf9, 0x08, 0x00, 0xf5, 0x00, 0xd5, 0xf0,
  0x00, 0xe5, 0xda, 0x00, 0x00, 0x08, 0xd7, 0x00, 0xe0, 0x00, 0xec, 0xe2,
  0x09, 0x00, 0x00, 0xeb, 0x00, 0xf5, 0x0b, 0xdd, 0x11, 0xe4, 0x00, 0xfa,
  0x00, 0x00, 0xf8, 0xec, 0xf7, 0x00, 0x00, 0x00, 0x00, 0xea, 0x00, 0xf4,
  0x00, 0x00, 0xf1, 0x00, 0xe8, 0xf4, 0xe7, 0xda, 0x00, 0x00, 0x01, 0x00,
  0x00, 0x0b, 0xf4, 0x00, 0xfe, 0x00, 0x00, 0x04, 0xf7, 0x0b, 0xea, 0xe5,
  0xf6, 0x00, 0x00, 0x00, 0x00, 0x00, 0x00, 0x0d, 0x00, 0x00, 0x00, 0x00,
  0xea, 0x00, 0x00, 0x00, 0x00, 0xf7, 0x00, 0x06, 0xe9, 0x0c, 0xdb, 0x00,
  0xeb, 0x00, 0xf9, 0x00, 0x07, 0x0f, 0xe3, 0x00, 0xf6, 0xe0, 0xe7, 0xf8,
  0xfb, 0xe7, 0x02, 0x0d, 0x0c, 0x03, 0x00, 0x00, 0xdc, 0x0b, 0x00, 0x00,
  0xf8, 0xd9, 0x00, 0x00, 0x00, 0x00, 0x00, 0x00, 0xfa, 0x00, 0x02, 0x00,
  0x06, 0x00, 0xd0, 0xd3, 0x00, 0xc0, 0x00, 0x00, 0xf7, 0x00, 0x00, 0x03,
  0x00, 0xf9, 0x00, 0xff, 0xe5, 0x00, 0xe4, 0xd6, 0x00, 0xe3, 0x12, 0xff,
  0x00, 0x00, 0xe2, 0x0d, 0x06, 0x0f, 0x00, 0x00, 0x00, 0x00, 0x00, 0x00,
  0x00, 0x1a, 0xf2, 0xf1, 0x00, 0xec, 0x00, 0x00, 0xf1, 0x00, 0x00, 0x00,
  0xe4, 0x00, 0xe1, 0xe0, 0xf8, 0x16, 0x00, 0x00, 0x00, 0xe6, 0xeb, 0x00,
  0x00, 0xe7, 0x00, 0xf4, 0x00, 0x00, 0x00, 0x00, 0x00, 0x00, 0x00, 0x00,
  0x00, 0x00, 0x00, 0x00, 0xe3, 0x00, 0x00, 0x00, 0xe8, 0x00, 0x00, 0xf3,
  0xf3, 0xec, 0xf2, 0x00, 0x00, 0xe6, 0x00, 0xfb, 0xfa, 0xf6, 0xf4, 0x0b,
  0x00, 0x00, 0x00, 0x00, 0x00, 0xee, 0xfd, 0x07, 0x00, 0x00, 0x00, 0x00,
  0x00, 0x05, 0xfc, 0x13, 0x00, 0x00, 0x00, 0x00, 0xf4, 0xf0, 0x00, 0x00,
  0x00, 0xfc, 0x00, 0x00, 0x00, 0xfe, 0x00, 0x00, 0x00, 0xfb, 0x00, 0x00,
  0x00, 0x00, 0xef, 0x0b, 0x00, 0x01, 0x00, 0x0a, 0x00, 0x0d, 0x0d, 0x00,
  0x0c, 0x00, 0x11, 0xf6, 0xe3, 0x00, 0x07, 0x00, 0x00, 0x08, 0x00, 0x00,
  0x00, 0x0b, 0x00, 0x13, 0x00, 0x00, 0x00, 0xcc, 0x00, 0xe6, 0x00, 0x00,
  0xdd, 0x00, 0x1f, 0x00, 0x00, 0xeb, 0x09, 0x00, 0x00, 0x07, 0x00, 0xf3,
  0xf0, 0x00, 0x18, 0xf2, 0xfc, 0x00, 0x00, 0xfd, 0xde, 0x05, 0x08, 0x10,
  0x09, 0x0d, 0xbb, 0xe7, 0x05, 0xf8, 0x00, 0x00, 0x07, 0x00, 0x00, 0x0b,
  0x00, 0x10, 0x00, 0x00, 0xf4, 0x00, 0xe1, 0x00, 0xe3, 0xff, 0xfa, 0x0b,
  0x17, 0x00, 0x00, 0x08, 0x1c, 0x00, 0x00, 0x00, 0x05, 0x00, 0x00, 0x00,
  0x00, 0x00, 0x00, 0x00, 0x06, 0x00, 0x00, 0x04, 0x00, 0x04, 0xcd, 0x00,
  0x00, 0xe9, 0xf7, 0x00, 0x00, 0xf0, 0x00, 0x00, 0x00, 0x00, 0x00, 0x00,
  0xe6, 0xf0, 0xf0, 0x00, 0xe1, 0xd3, 0x00, 0x15, 0x00, 0x00, 0x00, 0x0e,
  0xfb, 0x00, 0xf4, 0x00, 0x03, 0xf3, 0x04, 0x00, 0xfc, 0x00, 0x00, 0xf4,
  0x00, 0x01, 0xde, 0xec, 0x00, 0x00, 0x1a, 0x00, 0x00, 0x00, 0x00, 0x00,
  0xa6, 0xe3, 0x10, 0xe3, 0xf3, 0xfe, 0x00, 0xf4, 0x00, 0x1d, 0x00, 0x00,
  0xfe, 0xe2, 0x12, 0xef, 0xfa, 0xe4, 0x00, 0x00, 0x00, 0x00, 0xdd, 0xcc,
  0x00, 0x00, 0x00, 0xfa, 0xfb, 0xdf, 0x00, 0xd5, 0x00, 0xfe, 0xf8, 0x00,
  0x0a, 0x00, 0x00, 0x00, 0x1d, 0x07, 0x0e, 0x2a, 0x19, 0x00, 0x00, 0x10,
  0x0e, 0xf4, 0x00, 0xf2, 0xd3, 0x01, 0x00, 0x03, 0x00, 0x16, 0x00, 0x07,
  0x00, 0xf9, 0xe8, 0x02, 0x00, 0xbb, 0xe9, 0xe5, 0x1a, 0xaf, 0x00, 0x07,
  0x18, 0x00, 0x00, 0x00, 0x13, 0x00, 0x00, 0x00, 0xf5, 0x00, 0x00, 0xec,
  0xea, 0xfc, 0xe9, 0x00, 0x00, 0xfe, 0xf6, 0x1d, 0x05, 0x00, 0x00, 0x00,
  0x00, 0x00, 0xcd, 0x00, 0x00, 0xdf, 0x1f, 0x00, 0x00, 0x00, 0xf3, 0x00,
  0x19, 0x1f, 0x00, 0x0e, 0xd4, 0x00, 0x00, 0x00, 0xc2, 0x05, 0x00, 0xf1,
  0x00, 0x00, 0x0b, 0x00, 0xe1, 0x00, 0x00, 0x00, 0xeb, 0x0d, 0xd5, 0x00,
  0xe6, 0x00, 0x00, 0x00, 0xca, 0x1d, 0xb8, 0xb9, 0x1e, 0xde, 0xc3, 0x1c,
  0x00, 0x00, 0x00, 0xf2, 0x00, 0x00, 0x00, 0xd0, 0x23, 0xe3, 0x1b, 0x00,
  0x00, 0xd4, 0x00, 0xde, 0x00, 0xf8, 0xd9, 0x00, 0xfe, 0x00, 0x00, 0x00,
  0x02, 0xe9, 0x00, 0x10, 0x00, 0x00, 0xe2, 0xf1, 0xfd, 0xe5, 0xd9, 0xd1,
  0x00, 0xde, 0xd8, 0x00, 0xe9, 0x00, 0xe8, 0xed, 0x00, 0x00, 0xee, 0xdc,
  0x1a, 0xdf, 0xf6, 0x15, 0x1e, 0x00, 0x14, 0x20, 0x2f, 0x00, 0x00, 0x2d,
  0x00, 0x2b, 0x10, 0x00, 0x18, 0xe7, 0x11, 0x02, 0xd3, 0x00, 0xee, 0x1b,
  0x00, 0x00, 0x00, 0x00, 0xf8, 0xe2, 0xdc, 0x00, 0x00, 0xe2, 0xea, 0x00,
  0x0a, 0x00, 0x00, 0x00, 0x00, 0xfc, 0x00, 0x0c, 0x04, 0xf8, 0x00, 0x0d,
  0x00, 0x00, 0x00, 0xf3, 0x00, 0x00, 0x00, 0x00, 0xc2, 0x00, 0xd9, 0x14,
  0x00, 0x00, 0xcd, 0x07, 0xed, 0x19, 0x00, 0x00, 0x00, 0xdd, 0x00, 0x11,
  0xf8, 0x03, 0x00, 0x00, 0x00, 0x00, 0x08, 0x10, 0x00, 0x00, 0x08, 0xf5,
  0xe6, 0x00, 0x00, 0x00, 0x15, 0x0c, 0x00, 0x20, 0x05, 0x00, 0x00, 0x0f,
  0x09, 0x00, 0x00, 0xfc, 0x00, 0xe4, 0xf0, 0x00, 0xd7, 0x07, 0xfe, 0xc8,
  0x00, 0x0b, 0x00, 0x15, 0x03, 0x00, 0x00, 0x00, 0x00, 0x00, 0x00, 0x09,
  0x1f, 0x1c, 0x00, 0x00, 0xfb, 0x15, 0x00, 0x00, 0x00, 0x00, 0x02, 0x00,
  0x00, 0x00, 0x00, 0x00, 0x00, 0xf3, 0xfc, 0x00, 0x00, 0x02, 0xf8, 0x00,
  0x00, 0x0d, 0xfd, 0x00, 0x00, 0x00, 0xee, 0x00, 0x00, 0x00, 0x00, 0x00,
  0xfe, 0x00, 0xfa, 0x00, 0x0e, 0x00, 0x00, 0x00, 0x07, 0x00, 0x00, 0x00,
  0x09, 0xf3, 0x16, 0xfb, 0xe6, 0x09, 0x1a, 0x00, 0x00, 0x00, 0x06, 0x00,
  0x0e, 0x23, 0xe2, 0x00, 0x00, 0x00, 0x04, 0x00, 0x1c, 0x00, 0x00, 0x00,
  0x06, 0xf1, 0x00, 0xfc, 0x00, 0x00, 0x00, 0x00, 0xf6, 0xf3, 0x00, 0x00,
  0xe4, 0x00, 0x00, 0x00, 0xf1, 0x06, 0xf6, 0x08, 0x0d, 0x0e, 0xfd, 0xf6,
  0xec, 0xeb, 0x09, 0xf6, 0xf3, 0x00, 0xec, 0xf1, 0xf7, 0x00, 0x00, 0xc2,
  0x00, 0x00, 0xf5, 0xe6, 0x00, 0x00, 0x15, 0x15, 0xef, 0x00, 0x00, 0xe1,
  0x00, 0x00, 0x00, 0xe6, 0x00, 0xb4, 0xe7, 0x10, 0xee, 0xfa, 0xe8, 0x00,
  0xdd, 0xfa, 0xe6, 0xf8, 0xdc, 0xdc, 0x00, 0xf8, 0x00, 0xee, 0x00, 0x00,
  0x00, 0x22, 0x00, 0x14, 0x00, 0x1b, 0x00, 0x19, 0xdb, 0xeb, 0x00, 0x00,
  0x17, 0x16, 0x00, 0x00, 0x00, 0x00, 0x00, 0x00, 0x00, 0x00, 0x00, 0x1f,
  0x00, 0x00, 0x00, 0x00, 0x00, 0x00, 0x0d, 0xe1, 0x00, 0x59, 0x00, 0x00,
  0x1e, 0x00, 0x00, 0x00, 0x00, 0x00, 0x00, 0x00, 0x00, 0x00, 0x00, 0x00,
  0x00, 0xd9, 0x00, 0x00, 0xe8, 0x00, 0x00, 0x00, 0x00, 0x07, 0x00, 0x00,
  0x00, 0xf1, 0x3d, 0x24, 0x10, 0x00, 0x00, 0x00, 0xf3, 0x00, 0xde, 0x15,
  0x00, 0x00, 0x00, 0xdb, 0x00, 0x00, 0x00, 0xf4, 0x00, 0xfe, 0x00, 0x00,
  0x00, 0x00, 0x00, 0x00, 0x00, 0x00, 0x14, 0xea, 0xe9, 0x10, 0x00, 0x00,
  0x00, 0x00, 0x00, 0x00, 0x00, 0x00, 0x07, 0x00, 0xf5, 0x02, 0xf4, 0xf7,
  0xfe, 0xfc, 0x00, 0xf8, 0xfe, 0x00, 0x00, 0x00, 0x05, 0xee, 0x00, 0xf0,
  0xf3, 0x00, 0x00, 0x00, 0xdc, 0xe4, 0xcb, 0x00, 0x00, 0xd9, 0xfc, 0x00,
  0x00, 0xca, 0x00, 0x00, 0x00, 0x00, 0xfa, 0x00, 0x0e, 0x00, 0xfa, 0xee,
  0x00, 0x00, 0x00, 0xea, 0xee, 0x00, 0xcf, 0xe7, 0xe2, 0x00, 0xcf, 0xd1,
  0x00, 0x00, 0xd8, 0xc8, 0x10, 0x00, 0xd8, 0x0d, 0x00, 0x00, 0xee, 0x1f,
  0x00, 0xf6, 0xee, 0xbe, 0x00, 0x00, 0x00, 0xd9, 0x00, 0xef, 0x00, 0xe5,
  0x00, 0x00, 0xef, 0x00, 0x00, 0x00, 0xa5, 0x00, 0x00, 0x00, 0x0f, 0x00,
  0x00, 0x2c, 0x00, 0x34, 0x1e, 0x2f, 0x00, 0x0d, 0x00, 0x00, 0x00, 0x00,
  0x00, 0x00, 0xf8, 0xd4, 0x00, 0x00, 0x0f, 0x0f, 0x00, 0x00, 0x00, 0x01,
  0xc5, 0x00, 0x00, 0x00, 0x00, 0xf2, 0x00, 0x00, 0x00, 0x00, 0xd9, 0x00,
  0xfd, 0x00, 0xf9, 0x00, 0xca, 0xdf, 0x00, 0x00, 0x00, 0x00, 0x00, 0x00,
  0x09, 0x00, 0x00, 0x00, 0xc3, 0xbc, 0x00, 0xe4, 0xfd, 0xf3, 0x00, 0x00,
  0xe8, 0xf4, 0xf2, 0xff, 0xe9, 0xf9, 0xf7, 0xf0, 0x00, 0x00, 0x00, 0xf3,
  0x00, 0xef, 0x00, 0x00, 0x00, 0x00, 0xfd, 0x00, 0x00, 0x00, 0xe5, 0x00,
  0x0a, 0x00, 0x00, 0xeb, 0x00, 0x00, 0x00, 0x00, 0xcf, 0x00, 0x00, 0xda,
  0x00, 0x00, 0x00, 0xf1, 0xc9, 0x00, 0xf7, 0xd5, 0x07, 0xd6, 0xdf, 0x00,
  0x1d, 0x00, 0x00, 0x00, 0x00, 0x00, 0x0a, 0x00, 0xf8, 0x00, 0x00, 0xbc,
  0x07, 0xd7, 0x0a, 0x00, 0x0f, 0xe9, 0x0a, 0x06, 0x00, 0x00, 0x00, 0x00,
  0x00, 0x00, 0xf9, 0x07, 0x02, 0x00, 0xf1, 0xf1, 0x00, 0x00, 0x00, 0x00,
  0x00, 0x00, 0xf6, 0x00, 0x00, 0x00, 0xcb, 0x1e, 0xec, 0x1d, 0x00, 0x0b,
  0x0e, 0x00, 0x00, 0x00, 0x21, 0x25, 0xd3, 0x1d, 0x27, 0xfa, 0x00, 0x00,
  0x05, 0x00, 0x00, 0x00, 0xe4, 0x0b, 0x16, 0x00, 0x1d, 0x09, 0x0f, 0x00,
  0x00, 0x00, 0xe8, 0x00, 0xb1, 0x00, 0x00, 0x00, 0xcb, 0x00, 0x00, 0xd7,
  0xd9, 0x00, 0xda, 0x03, 0xfd, 0xe6, 0xe1, 0x00, 0x00, 0x00, 0xe6, 0x00,
  0xf8, 0x00, 0x00, 0x00, 0xf7, 0x00, 0x00, 0x00, 0xda, 0x00, 0x00, 0xb5,
  0xe2, 0x00, 0x00, 0x12, 0xd2, 0x00, 0xeb, 0x00, 0xf8, 0xfa, 0xe2, 0x00,
  0xe6, 0x00, 0xf0, 0x00, 0xfe, 0xf1, 0x00, 0x00, 0x00, 0x1a, 0xf6, 0x00,
  0x0d, 0x00, 0x00, 0x00, 0xf9, 0x00, 0xf4, 0xce, 0x03, 0xf6, 0x00, 0xf9,
  0xee, 0xea, 0xd5, 0xe3, 0x00, 0x00, 0x00, 0x00, 0xe0, 0x00, 0xdb, 0xe7,
  0xf7, 0xec, 0xd4, 0xf6, 0x00, 0xf8, 0xe7, 0x00, 0x00, 0xe0, 0x0a, 0x00,
  0xdd, 0x00, 0x00, 0xec, 0x00, 0x00, 0x00, 0x2f, 0x0e, 0xda, 0x00, 0x00,
  0x1e, 0x03, 0x08, 0x1c, 0x00, 0x20, 0x03, 0x00, 0xe6, 0x00, 0x01, 0xeb,
  0x00, 0x1d, 0x00, 0x00, 0x00, 0x00, 0x21, 0xfd, 0x00, 0xc0, 0xb3, 0x00,
  0xcc, 0x00, 0x0a, 0x06, 0x00, 0x0e, 0x0c, 0xdc, 0xe7, 0x00, 0xd2, 0xef,
  0x00, 0xf7, 0x00, 0x12, 0x00, 0x00, 0x00, 0x00, 0x00, 0x0d, 0x15, 0xf9,
  0x14, 0x00, 0x00, 0x1a, 0xde, 0x00, 0x03, 0x00, 0x00, 0x00, 0x00, 0xc4,
  0xe3, 0x00, 0xf2, 0xf6, 0x00, 0x00, 0x00, 0x00, 0xe9, 0x00, 0xd0, 0xd8,
  0x00, 0x00, 0xc4, 0x00, 0x00, 0x00, 0xda, 0xe6, 0x00, 0xe1, 0xd2, 0xe4,
  0xfb, 0x00, 0xfa, 0xc7, 0x00, 0x10, 0x00, 0xfb, 0x0b, 0x00, 0xfa, 0x00,
  0x00, 0x00, 0x00, 0x00, 0xf4, 0x1d, 0xf9, 0xdc, 0xf7, 0x00, 0x03, 0xe6,
  0x19, 0x04, 0xfb, 0x00, 0x00, 0x00, 0x00, 0x00, 0x00, 0x00, 0x1e, 0xef,
  0x00, 0xf6, 0xec, 0x00, 0x00, 0xee, 0x00, 0x00, 0x00, 0xf7, 0x00, 0x00,
  0xea, 0x00, 0xe3, 0x00, 0x00, 0xe7, 0x00, 0xfe, 0x0f, 0x00, 0xe1, 0x0d,
  0xea, 0x00, 0x1c, 0x00, 0x00, 0x00, 0x00, 0x00, 0x00, 0x00, 0xff, 0xff,
  0x08, 0x21, 0x00, 0x02, 0x1d, 0x3c, 0x00, 0x1b, 0xfe, 0x00, 0x16, 0x00,
  0x00, 0x00, 0x0f, 0x00, 0x2d, 0x13, 0x00, 0x00, 0x00, 0x00, 0x15, 0x0c,
  0xc8, 0x00, 0x00, 0x0e, 0xe6, 0x00, 0x00, 0xd8, 0xf9, 0x06, 0x00, 0x00,
  0x00, 0x03, 0x00, 0xf6, 0x00, 0x00, 0x00, 0x11, 0xfc, 0x0f, 0x15, 0x00,
  0x07, 0x00, 0x14, 0x00, 0x00, 0x14, 0x07, 0x00, 0x00, 0x01, 0x0c, 0x00,
  0x1f, 0xe1, 0x00, 0x00, 0x00, 0xd8, 0xf5, 0x00, 0x00, 0x00, 0x00, 0x02,
  0x00, 0x00, 0xff, 0xfc, 0x12, 0x11, 0xed, 0x00, 0x1e, 0xec, 0x02, 0x00,
  0xe6, 0x00, 0xf4, 0xf4, 0xf0, 0x00, 0x00, 0x00, 0x00, 0x00, 0x00, 0xfb,
  0xfd, 0x00, 0x00, 0x13, 0x00, 0xf8, 0x00, 0x00, 0x12, 0x00, 0x0c, 0xfa,
  0x00, 0x00, 0x00, 0x00, 0x00, 0x00, 0xe1, 0x00, 0x10, 0xf5, 0x00, 0x00,
  0x00, 0x0b, 0x00, 0x00, 0x00, 0x00, 0x19, 0x0d, 0x0a, 0xf1, 0x00, 0x0a,
  0xf8, 0x00, 0x00, 0x00, 0x00, 0x00, 0x2a, 0x07, 0x21, 0x00, 0x23, 0x04,
  0xef, 0x08, 0x00, 0x00, 0x00, 0x02, 0x00, 0x00, 0x00, 0x00, 0x00, 0x00,
  0x01, 0x00, 0x00, 0x00, 0x00, 0x00, 0x00, 0x19, 0x00, 0x00, 0x16, 0x00,
  0x00, 0xff, 0x00, 0xff, 0x00, 0xfa, 0x00, 0x16, 0x00, 0x00, 0x06, 0x0e,
  0x00, 0x0c, 0x00, 0x00, 0xf3, 0x08, 0xfb, 0x00, 0x00, 0x00, 0x00, 0xca,
  0x00, 0xc1, 0xd3, 0x13, 0xe5, 0xec, 0x00, 0x00, 0x15, 0xe9, 0x14, 0x00,
  0x00, 0x00, 0x00, 0x06, 0x00, 0x00, 0x00, 0x00, 0x00, 0x00, 0xe4, 0x00,
  0xe0, 0x09, 0xf7, 0x00, 0x00, 0xf0, 0xd2, 0xca, 0x00, 0xad, 0xb4, 0x00,
  0x00, 0xfe, 0x00, 0x00, 0x00, 0x00, 0x00, 0x00, 0x00, 0x00, 0x0c, 0x00,
  0x00, 0xf1, 0x11, 0xe9, 0x00, 0x00, 0x01, 0x0c, 0x00, 0x0c, 0xf8, 0x00,
  0x00, 0x00, 0x00, 0x1a, 0x00, 0x00, 0x00, 0x00, 0xf2, 0x00, 0x0f, 0xe7,
  0xfc, 0x00, 0x00, 0x00, 0x00, 0xfb, 0x00, 0x00, 0x00, 0x00, 0x00, 0x09,
  0xfb, 0x00, 0x0e, 0xf9, 0x00, 0x00, 0x00, 0xe3, 0x00, 0xfe, 0x14, 0x0d,
  0x00, 0x00, 0x00, 0x00, 0x00, 0x00, 0x00, 0xec, 0xd4, 0xe5, 0x00, 0x00,
  0x17, 0x00, 0x00, 0x0e, 0x00, 0x12, 0x00, 0x07, 0x00, 0x00, 0x00, 0xd3,
  0xf5, 0x00, 0xff, 0xf3, 0xf3, 0xf2, 0x06, 0x00, 0xf1, 0x00, 0x00, 0x00,
  0xec, 0xea, 0x00, 0x00, 0x00, 0xef, 0x07, 0x00, 0x08, 0x00, 0x03, 0x00,
  0x15, 0x00, 0x00, 0xfd, 0xf0, 0x00, 0x00, 0x00, 0x00, 0xfa, 0x00, 0x00,
  0x00, 0x00, 0x00, 0x00, 0x00, 0x00, 0x00, 0xf4, 0xec, 0x00, 0x00, 0x14,
  0xff, 0xe4, 0x0a, 0x05, 0x05, 0x00, 0x08, 0x00, 0x00, 0x08, 0x00, 0x00,
  0xf3, 0x03, 0x00, 0xf8, 0xf9, 0xf9, 0x00, 0x00, 0xe7, 0xf7, 0x00, 0xeb,
  0x00, 0x00, 0x00, 0xe8, 0xe0, 0x00, 0x00, 0x23, 0x0f, 0xde, 0xf1, 0x08,
  0x00, 0x00, 0x00, 0xda, 0xdc, 0xf1, 0x00, 0xcb, 0x0b, 0x06, 0x00, 0x00,
  0xda, 0xe3, 0x00, 0xf2, 0x26, 0x42, 0x21, 0x00, 0xd2, 0x41, 0x00, 0x00,
  0xdf, 0x00, 0x00, 0xe5, 0xb8, 0xf3, 0x00, 0x00, 0x00, 0x14, 0x00, 0x00,
  0x00, 0x0f, 0x2f, 0xfa, 0x00, 0x00, 0x10, 0xc4, 0x13, 0x00, 0x00, 0x00,
  0x21, 0x12, 0x00, 0x00, 0xe3, 0x00, 0x00, 0xe6, 0xf7, 0xb7, 0xef, 0xe7,
  0xa7, 0x00, 0x00, 0x00, 0x20, 0x03, 0xf2, 0x00, 0x00, 0x00, 0xfe, 0x00,
  0x00, 0x00, 0x00, 0x00, 0x17, 0xf9, 0x00, 0xd8, 0x00, 0xfa, 0x0c, 0xf3,
  0x00, 0x00, 0xf3, 0x00, 0x00, 0x00, 0xf2, 0x00, 0x00, 0x00, 0x00, 0x00,
  0x00, 0x00, 0xd4, 0xf9, 0x2e, 0x00, 0x00, 0xef, 0x00, 0xd5, 0xf5, 0xdc,
  0x00, 0xee, 0x00, 0x00, 0x00, 0xf6, 0xfc, 0x00, 0x00, 0x00, 0x09, 0xfd,
  0x00, 0x00, 0xe3, 0x12, 0xed, 0x00, 0x00, 0x00, 0xdd, 0xe3, 0xe9, 0xd9,
  0x00, 0x00, 0xf0, 0x00, 0x08, 0x00, 0x00, 0x00, 0x00, 0x00, 0x00, 0xe8,
  0xeb, 0x00, 0xee, 0x00, 0x00, 0x00, 0x11, 0x00, 0x00, 0x00, 0x00, 0x11,
  0x00, 0xfc, 0x00, 0x00, 0xd5, 0x00, 0x00, 0x00, 0x00, 0xf7, 0x00, 0x00,
  0x00, 0x00, 0x06, 0x12, 0x00, 0x00, 0x00, 0xe7, 0x00, 0x00, 0xc2, 0x00,
  0x14, 0x00, 0x00, 0x14, 0x03, 0x18, 0x00, 0x00, 0xfb, 0x00, 0x00, 0xf7,
  0x00, 0x00, 0x00, 0xbd, 0x00, 0x00, 0xf9, 0x00, 0x30, 0xfc, 0x00, 0x00,
  0x00, 0x00, 0x00, 0x00, 0x11, 0xdb, 0x00, 0x0a, 0x0c, 0x00, 0xf6, 0xfb,
  0x1e, 0x00, 0x00, 0x0a, 0x00, 0x36, 0xc8, 0xe7, 0x00, 0x00, 0x00, 0x00,
  0xc3, 0xf6, 0xd9, 0x0d, 0x00, 0xf0, 0x00, 0x00, 0x19, 0x00, 0x03, 0x00,
  0x06, 0x00, 0xde, 0x16, 0x00, 0x00, 0x00, 0x00, 0x08, 0xe5, 0x00, 0x00,
  0x00, 0x11, 0x00, 0x00, 0xfa, 0x00, 0x00, 0x00, 0x00, 0xd7, 0x00, 0x06,
  0x00, 0x00, 0x00, 0x00, 0x00, 0x00, 0x00, 0x00, 0x00, 0x00, 0x00, 0x00,
  0x09, 0x00, 0xfb, 0x00, 0x11, 0x00, 0xfc, 0x00, 0x00, 0x00, 0xec, 0x00,
  0xfc, 0x00, 0x00, 0xfd, 0xdc, 0x00, 0x00, 0x00, 0x00, 0x00, 0x00, 0x00,
  0xf6, 0xfa, 0x00, 0x00, 0x1e, 0x1c, 0x00, 0x00, 0xf9, 0x00, 0x00, 0x16,
  0x00, 0x00, 0x00, 0x00, 0x00, 0x00, 0x00, 0x00, 0x2b, 0x00, 0x00, 0x00,
  0x00, 0x00, 0x00, 0x21, 0x00, 0x00, 0xef, 0x00, 0x00, 0x00, 0x00, 0x00,
  0x01, 0xce, 0x00, 0x00, 0x20, 0x00, 0x1f, 0x00, 0x16, 0x00, 0x00, 0x00,
  0x00, 0x00, 0x0b, 0x00, 0x00, 0xef, 0x07, 0x00, 0xf6, 0x00, 0x00, 0x00,
  0xf3, 0x00, 0x2b, 0x00, 0x09, 0x00, 0x00, 0x00, 0x00, 0xe0, 0x00, 0x00,
  0x1c, 0x00, 0x00, 0x00, 0x06, 0x02, 0xf8, 0x00, 0x00, 0x06, 0xfd, 0x00,
  0x00, 0x00, 0x00, 0x00, 0x00, 0xfd, 0xe8, 0x00, 0x00, 0x00, 0x00, 0x00,
  0x00, 0x00, 0x00, 0x00, 0x00, 0x00, 0x00, 0x00, 0x00, 0x00, 0x00, 0x00,
  0x00, 0x00, 0x00, 0x00, 0x00, 0xf1, 0x00, 0x00, 0x10, 0x00, 0x0e, 0x00,
  0xf1, 0x1a, 0x15, 0x00, 0xf0, 0x00, 0x00, 0x0a, 0x00, 0x00, 0x0a, 0x00,
  0x00, 0x00, 0x0c, 0x00, 0xd9, 0x0e, 0xca, 0x05, 0xc7, 0x00, 0x00, 0x00,
  0x0a, 0xe5, 0x00, 0x00, 0x00, 0x00, 0x1b, 0x00, 0x00, 0x00, 0x0d, 0x0b,
  0xd7, 0x00, 0x00, 0x00, 0x00, 0x00, 0x00, 0x07, 0x39, 0x00, 0x00, 0x00,
  0x00, 0x00, 0x00, 0x0f, 0x00, 0x00, 0x00, 0x00, 0x00, 0x1b, 0x25, 0x00,
  0x1a, 0x3c, 0x00, 0x1b, 0x34, 0x18, 0x10, 0x1e, 0xdc, 0x00, 0x00, 0x00,
  0x00, 0x00, 0x00, 0x32, 0x0e, 0x00, 0xf5, 0x00, 0x0e, 0x00, 0xfb, 0x00,
  0x00, 0x00, 0x01, 0x00, 0x0e, 0x00, 0x00, 0x00, 0x00, 0x00, 0x00, 0x00,
  0x00, 0xf7, 0x00, 0x00, 0x00, 0x00, 0x00, 0xf9, 0x00, 0x00, 0x00, 0x00,
  0x00, 0x00, 0x00, 0xe7, 0x00, 0x00, 0x00, 0x00, 0x00, 0x00, 0x00, 0x00,
  0x00, 0xe5, 0x2b, 0x00, 0x00, 0x0f, 0x16, 0x1a, 0x00, 0xdc, 0x0c, 0x07,
  0x00, 0x0f, 0x09, 0xe5, 0x00, 0x00, 0x11, 0xfc, 0x00, 0x00, 0x00, 0x00,
  0x00, 0x00, 0x00, 0x00, 0x0a, 0xe5, 0x00, 0xeb, 0x0f, 0x00, 0x28, 0x00,
  0x00, 0x00, 0x00, 0x00, 0xf8, 0xf6, 0x00, 0x00, 0xe7, 0x00, 0x00, 0xe7,
  0x00, 0x00, 0x00, 0x0a, 0x0f, 0x09, 0x00, 0xc1, 0x00, 0xda, 0xdb, 0xe6,
  0x00, 0x0f, 0x00, 0x00, 0x00, 0x00, 0x00, 0x06, 0xef, 0x12, 0x00, 0xed,
  0x04, 0x00, 0x02, 0x00, 0x00, 0x10, 0x00, 0x00, 0xf0, 0x00, 0x00, 0x00,
  0x00, 0x0f, 0xfc, 0x00, 0x00, 0xad, 0x00, 0x00, 0xdc, 0x00, 0x00, 0x00,
  0x00, 0x00, 0x00, 0x00, 0x00, 0x00, 0x00, 0x00, 0x13, 0x00, 0x00, 0x00,
  0x13, 0x10, 0x07, 0x00, 0xc3, 0x00, 0x0a, 0x0b, 0x00, 0xf2, 0x00, 0x00,
  0xe7, 0x1f, 0xfd, 0x14, 0xe4, 0x00, 0x07, 0x00, 0x08, 0x00, 0x00, 0x00,
  0x0d, 0x00, 0x00, 0x00, 0x00, 0x00, 0x00, 0x0e, 0xe4, 0x0c, 0x25, 0xf5,
  0x0a, 0x00, 0xf9, 0x00, 0x12, 0xe9, 0x00, 0x00, 0x00, 0x26, 0x00, 0x00,
  0x00, 0x00, 0x00, 0x00, 0x00, 0xc9, 0x00, 0x00, 0x22, 0x00, 0x00, 0x10,
  0x06, 0x00, 0xf6, 0x0c, 0xcf, 0x00, 0x00, 0x00, 0x0b, 0x00, 0x08, 0x00,
  0x00, 0xd2, 0x00, 0x00, 0xeb, 0x00, 0x00, 0x00, 0x00, 0x00, 0x00, 0xeb,
  0x00, 0x00, 0x0a, 0x00, 0x00, 0x00, 0x00, 0x06, 0x00, 0x0d, 0x00, 0x00,
  0xb6, 0x0a, 0xd9, 0xce, 0x00, 0x00, 0xfd, 0x00, 0x00, 0x00, 0x00, 0x00,
  0x00, 0x00, 0x11, 0x00, 0x00, 0xfe, 0xf0, 0xf5, 0xf4, 0x00, 0x00, 0x00,
  0x00, 0x00, 0x00, 0x00, 0x00, 0x00, 0x00, 0x01, 0x00, 0x00, 0x00, 0x11,
  0x18, 0x00, 0x00, 0x00, 0x00, 0x00, 0xbf, 0x00, 0x00, 0x00, 0x1a, 0x00,
  0x00, 0x00, 0x00, 0x00, 0x00, 0x00, 0x00, 0x00, 0xc2, 0x00, 0x00, 0x00,
  0x00, 0xd6, 0x10, 0x00, 0x21, 0x00, 0x14, 0x00, 0xd9, 0xf9, 0x00, 0x07,
  0xe9, 0x00, 0x00, 0x00, 0xcd, 0x00, 0x00, 0xf1, 0x00, 0x00, 0xfb, 0xd6,
  0xd4, 0x00, 0xf1, 0x00, 0x00, 0xe5, 0xfa, 0x00, 0x17, 0x14, 0xfb, 0xef,
  0xf5, 0x00, 0x1d, 0x00, 0x00, 0x00, 0xf7, 0x00, 0x00, 0x00, 0xf8, 0xf6,
  0xd9, 0x00, 0x00, 0xf3, 0x00, 0x1c, 0x00, 0x00, 0xc4, 0x00, 0x00, 0xb6,
  0x00, 0x00, 0xfb, 0x00, 0x23, 0x00, 0xd6, 0x00, 0x00, 0xe5, 0x00, 0xc2,
  0x12, 0x02, 0x07, 0xd7, 0x00, 0xda, 0x00, 0xfc, 0x00, 0xfd, 0x00, 0x10,
  0x18, 0x00, 0x00, 0x00, 0xe3, 0x00, 0x00, 0xe0, 0x17, 0x10, 0x00, 0x03,
  0xef, 0xf4, 0xe6, 0x00, 0xcc, 0xf2, 0x00, 0xdf, 0x16, 0x00, 0x00, 0x15,
  0x0d, 0x00, 0x00, 0x12, 0x00, 0xfd, 0x00, 0x00, 0x00, 0x00, 0x00, 0xe4,
  0x00, 0xd7, 0x00, 0x00, 0x00, 0x00, 0x00, 0x00, 0xc5, 0x00, 0x00, 0x00,
  0x00, 0x00, 0x00, 0x00, 0x00, 0x00, 0x07, 0x00, 0x00, 0x00, 0x00, 0x00,
  0xdf, 0x11, 0x00, 0x00, 0x00, 0x00, 0xfa, 0xb7, 0x04, 0x00, 0x00, 0x00,
  0xf9, 0xfd, 0x00, 0x00, 0x00, 0x00, 0x00, 0x00, 0x00, 0xff, 0x00, 0x07,
  0x00, 0xfa, 0x08, 0xf7, 0x19, 0x22, 0x00, 0xd3, 0x00, 0xf6, 0x00, 0xdb,
  0xd4, 0x00, 0x00, 0xd2, 0xfc, 0x00, 0xec, 0x06, 0x00, 0x00, 0x00, 0x00,
  0x00, 0xd9, 0x21, 0x00, 0x00, 0x05, 0xf1, 0xf7, 0xe6, 0x00, 0x00, 0x00,
  0x00, 0x00, 0x00, 0x00, 0xcf, 0x00, 0xd8, 0xfb, 0x00, 0xe8, 0x00, 0x00,
  0x02, 0x00, 0x03, 0xdc, 0x00, 0x00, 0xfd, 0x0e, 0x11, 0xef, 0xec, 0x00,
  0x00, 0xeb, 0xd5, 0xc0, 0x00, 0x00, 0x00, 0xfc, 0x00, 0xf6, 0x00, 0x00,
  0xe9, 0x12, 0x00, 0x00, 0xf5, 0x00, 0x00, 0xfb, 0x00, 0xdf, 0x0f, 0xe2,
  0x17, 0x00, 0x00, 0x00, 0x18, 0xfa, 0xfa, 0x00, 0xaf, 0xf7, 0xec, 0xca,
  0x0e, 0x00, 0x00, 0x00, 0xf1, 0xf1, 0x0c, 0xe5, 0x00, 0x00, 0x00, 0xfd,
  0x00, 0xd4, 0x00, 0xe9, 0x00, 0x00, 0x00, 0x00, 0x0a, 0xff, 0x00, 0x00,
  0x00, 0xfb, 0x02, 0xef, 0x00, 0x00, 0x00, 0xf0, 0x00, 0x00, 0x02, 0x00,
  0x00, 0xfd, 0xe6, 0xfc, 0x00, 0x00, 0x00, 0xfa, 0x00, 0x00, 0xd9, 0xea,
  0x00, 0x00, 0x00, 0x00, 0xc9, 0x01, 0x00, 0x00, 0x00, 0xe8, 0x06, 0xfc,
  0x00, 0xfb, 0x00, 0x05, 0x00, 0x00, 0x00, 0x14, 0x00, 0x00, 0xee, 0x00,
  0xf7, 0x00, 0x00, 0x00, 0x00, 0x00, 0x02, 0xe8, 0x00, 0x01, 0xff, 0x00,
  0x00, 0x00, 0x00, 0x00, 0xfd, 0x00, 0x00, 0x00, 0x00, 0x28, 0x0d, 0x00,
  0x00, 0x00, 0x00, 0x33, 0x13, 0x10, 0x00, 0x00, 0x00, 0x00, 0xbf, 0x00,
  0xf6, 0x00, 0x00, 0x00, 0x00, 0xf5, 0x00, 0xeb, 0xfa, 0x00, 0x00, 0xf5,
  0x00, 0x00, 0x00, 0x00, 0x00, 0x05, 0xe6, 0x00, 0x00, 0x02, 0x1c, 0x0c,
  0x0c, 0x00, 0xf9, 0x00, 0x00, 0x00, 0xe8, 0x00, 0x00, 0x00, 0xf4, 0x00,
  0x00, 0x09, 0x00, 0x00, 0x00, 0x00, 0x00, 0xfe, 0x0d, 0xf2, 0xfd, 0x00,
  0x00, 0x00, 0xce, 0xca, 0x00, 0x02, 0x04, 0x08, 0xfd, 0xdb, 0x00, 0x00,
  0x00, 0x00, 0x08, 0x00, 0x09, 0x00, 0x00, 0x00, 0xdb, 0x00, 0x00, 0x00,
  0x00, 0x00, 0x02, 0x00, 0x00, 0x00, 0x00, 0x00, 0xf6, 0x00, 0x10, 0x00,
  0xf6, 0x00, 0xec, 0x00, 0x00, 0x00, 0x00, 0x0f, 0x0d, 0x08, 0x00, 0x00,
  0xfe, 0x0b, 0xdb, 0xf6, 0x00, 0xf3, 0x00, 0x05, 0xe6, 0x00, 0x00, 0x00,
  0xd3, 0x00, 0x04, 0x00, 0x00, 0xef, 0x0c, 0x07, 0x00, 0xe6, 0x00, 0x00,
  0x00, 0x00, 0x00, 0x00, 0xfd, 0x00, 0xeb, 0x00, 0xec, 0x04, 0x00, 0xf6,
  0x04, 0x00, 0x00, 0xff, 0xed, 0x00, 0x09, 0x00, 0x00, 0xfb, 0x08, 0x00,
  0x00, 0x00, 0x00, 0x00, 0xf7, 0x00, 0x00, 0x00, 0x00, 0xe6, 0x00, 0x00,
  0x00, 0x0e, 0x00, 0x00, 0xd6, 0x00, 0xff, 0x00, 0x00, 0x0e, 0x00, 0x00,
  0xd5, 0xe9, 0xf6, 0x00, 0x23, 0x00, 0x00, 0xe4, 0x00, 0x00, 0x00, 0x07,
  0x00, 0xec, 0x00, 0x23, 0x00, 0x00, 0x00, 0x00, 0x00, 0xe2, 0x00, 0xdb,
  0xea, 0x00, 0xea, 0x26, 0x00, 0x00, 0xe5, 0x00, 0xd3, 0x00, 0xdc, 0x00,
  0x00, 0x00, 0xc8, 0xc7, 0x18, 0xce, 0x00, 0x00, 0xc9, 0xe2, 0x00, 0x00,
  0xe0, 0x00, 0xb7, 0x00, 0x00, 0x00, 0x13, 0x00, 0xe5, 0x4a, 0x00, 0x21,
  0xf7, 0x00, 0x00, 0xe7, 0xd9, 0x00, 0xd5, 0xc8, 0x04, 0xe7, 0xd8, 0xe4,
  0x00, 0x00, 0x00, 0x00, 0x00, 0x00, 0xe5, 0x00, 0xf7, 0x00, 0xf0, 0x09,
  0x00, 0x00, 0x0e, 0x29, 0x00, 0x24, 0x00, 0x3d, 0x09, 0x08, 0xe5, 0x00,
  0x00, 0x00, 0x00, 0xe0, 0x00, 0xe6, 0x00, 0x00, 0x00, 0xf5, 0x00, 0x00,
  0x3d, 0x00, 0xf2, 0x00, 0x00, 0x04, 0x00, 0x00, 0xf9, 0x1a, 0x00, 0x00,
  0x00, 0xf5, 0x08, 0x00, 0x00, 0x00, 0x00, 0x1e, 0xf7, 0xfc, 0xf3, 0x02,
  0x00, 0x00, 0x00, 0x00, 0x0c, 0xfb, 0xf6, 0xfc, 0x00, 0xf6, 0x00, 0xfc,
  0x00, 0x00, 0x00, 0x00, 0x0a, 0x00, 0x0c, 0x00, 0x00, 0x00, 0xc9, 0x00,
  0x2c, 0x00, 0xe9, 0x00, 0xca, 0xf3, 0x00, 0xc9, 0xd6, 0x18, 0xf7, 0xd7,
  0x00, 0xef, 0x00, 0x00, 0x00, 0x00, 0x00, 0x00, 0xe7, 0x00, 0x00, 0x07,
  0x07, 0xc0, 0x1d, 0xfa, 0x01, 0x2b, 0xcc, 0x00, 0xf3, 0x04, 0xc5, 0x12,
  0x00, 0xdf, 0x00, 0xab, 0x00, 0x00, 0xf5, 0x00, 0x25, 0xc3, 0x00, 0x00,
  0xc7, 0xca, 0x00, 0x00, 0x00, 0xdf, 0x00, 0xef, 0x00, 0xe2, 0x0c, 0x00,
  0x0c, 0x27, 0x00, 0x2f, 0x00, 0x24, 0xfc, 0x00, 0xc4, 0x00, 0xd4, 0xb0,
  0xb0, 0xf6, 0x00, 0xd6, 0x00, 0xd8, 0x00, 0x00, 0x00, 0x00, 0xd8, 0xfb,
  0x00, 0x00, 0xd7, 0x13, 0x21, 0x00, 0x00, 0x00, 0x30, 0x00, 0x00, 0x00,
  0xfb, 0x00, 0x00, 0x00, 0xea, 0x00, 0x00, 0xe5, 0x00, 0xdf, 0xf2, 0x15,
  0x16, 0xd9, 0x0b, 0x20, 0x00, 0xce, 0xe6, 0xf1, 0x06, 0x00, 0x00, 0xce,
  0x00, 0xfb, 0x00, 0x08, 0x00, 0x00, 0x08, 0x00, 0x10, 0x16, 0x00, 0x04,
  0x00, 0x00, 0x00, 0x00, 0x00, 0x00, 0x00, 0x00, 0x00, 0xfe, 0xdb, 0x0b,
  0x00, 0x07, 0x00, 0x00, 0x00, 0x00, 0xda, 0x0c, 0x14, 0x00, 0x00, 0x00,
  0x09, 0x00, 0x04, 0x00, 0x00, 0x0e, 0xfb, 0x15, 0x00, 0x0e, 0x09, 0x00,
  0xa0, 0xd0, 0x10, 0x05, 0x00, 0x0e, 0x00, 0x00, 0xfb, 0x00, 0x00, 0x00,
  0x07, 0x1c, 0xd7, 0x00, 0x00, 0xe6, 0x00, 0x00, 0x00, 0x00, 0x00, 0x00,
  0x0e, 0x00, 0xef, 0x0c, 0x00, 0x1a, 0x00, 0xf1, 0xe8, 0x00, 0x00, 0x00,
  0x00, 0x00, 0x12, 0x00, 0x05, 0x07, 0x00, 0x01, 0x00, 0x00, 0xbd, 0xf8,
  0x00, 0xed, 0x00, 0x00, 0x19, 0x00, 0xe7, 0x28, 0x00, 0x00, 0x00, 0xf9,
  0xd7, 0x00, 0x00, 0x00, 0xe0, 0xf2, 0x00, 0xe9, 0x00, 0xff, 0xe1, 0x00,
  0xec, 0xea, 0x00, 0x00, 0x00, 0x00, 0xe7, 0x00, 0x00, 0x00, 0x18, 0x00,
  0x10, 0x00, 0xf2, 0x14, 0x00, 0xfc, 0x00, 0x00, 0x00, 0x00, 0xf3, 0x00,
  0x00, 0xef, 0x00, 0x00, 0x03, 0xf6, 0xfd, 0x00, 0xfd, 0x00, 0x0e, 0x00,
  0x00, 0xd0, 0x00, 0x16, 0x00, 0x08, 0x0f, 0x00, 0x00, 0x00, 0x00, 0x00,
  0x0e, 0xf1, 0x0c, 0x05, 0x0d, 0xf3, 0x00, 0x00, 0xee, 0xf7, 0xd8, 0x00,
  0xea, 0x00, 0xf4, 0x00, 0x06, 0x00, 0xf1, 0xf0, 0xfc, 0x00, 0x0c, 0x00,
  0xf5, 0x00, 0x0c, 0x08, 0x00, 0x00, 0x00, 0xf7, 0x0a, 0xdf, 0x00, 0x15,
  0x00, 0x14, 0x0a, 0x15, 0x00, 0x00, 0x01, 0x00, 0x00, 0x17, 0x17, 0x0b,
  0x00, 0x13, 0x00, 0xf1, 0x00, 0x00, 0x11, 0xed, 0x00, 0x00, 0x00, 0xff,
  0x00, 0x00, 0x10, 0x00, 0xff, 0x00, 0x00, 0x00, 0x00, 0x00, 0x12, 0x00,
  0x14, 0x00, 0x00, 0x00, 0x0f, 0x13, 0xfa, 0x00, 0x00, 0x16, 0x15, 0x00,
  0x00, 0x00, 0x00, 0x00, 0x00, 0x00, 0x00, 0x15, 0x00, 0x00, 0x0f, 0x00,
  0x00, 0x00, 0xf7, 0x06, 0x00, 0x00, 0x00, 0x00, 0xe6, 0x0d, 0xf3, 0x00,
  0x00, 0x00, 0x00, 0x06, 0xf5, 0x1b, 0x00, 0x00, 0x00, 0x12, 0x16, 0x12,
  0x02, 0x24, 0x00, 0xe9, 0x00, 0x00, 0x0c, 0x00, 0x00, 0xe1, 0x0a, 0x08,
  0x00, 0x00, 0x0e, 0x00, 0x0d, 0x16, 0x00, 0x00, 0x00, 0x0d, 0x00, 0x00,
  0x00, 0x1a, 0x00, 0x00, 0x00, 0xe1, 0x0c, 0x00, 0xea, 0x06, 0xf3, 0x00,
  0xe6, 0x00, 0xe8, 0x00, 0x00, 0xdc, 0x00, 0x00, 0x00, 0xcf, 0x00, 0x00,
  0x00, 0x00, 0xd8, 0xe0, 0xff, 0x00, 0x00, 0x00, 0x0e, 0xe5, 0xdc, 0xdd,
  0xeb, 0xcc, 0x00, 0x00, 0xf6, 0xfe, 0x00, 0x00, 0xf1, 0x00, 0x00, 0x00,
  0xcf, 0xfa, 0x00, 0xd6, 0x00, 0xd2, 0x00, 0xf1, 0x00, 0x09, 0x00, 0x00,
  0x00, 0xdc, 0x00, 0xe4, 0x01, 0x00, 0xce, 0xd5, 0xd9, 0x00, 0x00, 0x00,
  0x00, 0x00, 0x10, 0x00, 0x07, 0x00, 0x00, 0x00, 0x00, 0x00, 0x00, 0x00,
  0x00, 0xbc, 0xf2, 0x00, 0xfa, 0x09, 0x00, 0xe8, 0x00, 0xd6, 0x05, 0xed,
  0x00, 0x00, 0xa2, 0x00, 0xc5, 0xeb, 0x00, 0x00, 0x00, 0x00, 0x05, 0x00,
  0x00, 0xfb, 0x00, 0x0c, 0x09, 0x03, 0x00, 0x0f, 0x00, 0x00, 0xf9, 0x00,
  0x00, 0x08, 0xef, 0xea, 0x00, 0x00, 0x05, 0x00, 0x03, 0xf0, 0x00, 0x00,
  0xdb, 0x09, 0x0a, 0xdc, 0x00, 0x00, 0x00, 0x00, 0x00, 0x00, 0x00, 0xdb,
  0x00, 0x00, 0x00, 0x00, 0x00, 0x00, 0xe6, 0xf6, 0x07, 0x00, 0x00, 0x00,
  0xfc, 0x0e, 0xfb, 0x0c, 0x00, 0xf2, 0x00, 0xfd, 0x00, 0xf6, 0x00, 0xf6,
  0x00, 0xf1, 0xe2, 0xe8, 0xfd, 0x00, 0xf3, 0x00, 0x00, 0x00, 0x00, 0xf4,
  0xb9, 0x00, 0x00, 0xeb, 0x02, 0xeb, 0x08, 0xe4, 0x00, 0x00, 0x00, 0x00,
  0xdf, 0x00, 0x00, 0xfe, 0x00, 0x03, 0x00, 0x00, 0x00, 0x00, 0xe4, 0x00,
  0x00, 0x00, 0xdb, 0x00, 0x00, 0x00, 0xd3, 0x03, 0xe3, 0x00, 0x00, 0x00,
  0x00, 0xe1, 0x00, 0x00, 0x00, 0x08, 0xe8, 0x00, 0x00, 0xf6, 0x00, 0x19,
  0xfa, 0x00, 0xdd, 0x07, 0xfb, 0x00, 0x00, 0x00, 0x01, 0x00, 0xf8, 0x00,
  0x00, 0xf7, 0x00, 0x00, 0xe4, 0x00, 0x00, 0x00, 0x00, 0xf8, 0xf7, 0x00,
  0x00, 0xef, 0x00, 0x00, 0x00, 0x00, 0xf6, 0x00, 0x05, 0xf8, 0x00, 0x00,
  0xfc, 0x00, 0xff, 0x07, 0x00, 0x00, 0x00, 0xea, 0x05, 0xf2, 0x00, 0x00,
  0x1c, 0x0b, 0x00, 0x00, 0xec, 0x0c, 0xed, 0x00, 0xda, 0x00, 0x0b, 0x00,
  0x00, 0x00, 0x00, 0x00, 0x00, 0x00, 0x00, 0x00, 0x00, 0x00, 0xf0, 0x00,
  0x00, 0xf9, 0x12, 0x00, 0x00, 0xf6, 0x00, 0x00, 0x26, 0x04, 0x08, 0x2f,
  0xee, 0x00, 0x00, 0x20, 0x00, 0x00, 0x00, 0xdd, 0x41, 0x00, 0x0e, 0x00,
  0x00, 0x00, 0x00, 0xbd, 0x00, 0x00, 0x00, 0xec, 0x00, 0x00, 0xff, 0x0a,
  0x00, 0x01, 0x00, 0xed, 0x00, 0x00, 0x00, 0xd8, 0xf4, 0xda, 0xce, 0x07,
  0xec, 0xee, 0x00, 0xf0, 0x00, 0x00, 0xd6, 0x00, 0xf0, 0xf0, 0x00, 0xe2,
  0x0d, 0xd6, 0xfc, 0x00, 0x00, 0x00, 0xf8, 0x0a, 0x20, 0x00, 0x00, 0x00,
  0xdb, 0x00, 0x00, 0xe6, 0x00, 0xe6, 0x00, 0x00, 0x00, 0x00, 0x00, 0x00,
  0x00, 0x00, 0xee, 0x0f, 0x00, 0x00, 0xf7, 0x05, 0x00, 0x03, 0xfe, 0x00,
  0xfc, 0x00, 0xf9, 0x00, 0x1c, 0x08, 0x00, 0x00, 0x00, 0x00, 0x00, 0x00,
  0x03, 0x00, 0x00, 0x00, 0x00, 0x00, 0x00, 0x12, 0x00, 0x00, 0xfc, 0x00,
  0x0f, 0x00, 0x00, 0x00, 0xd1, 0x00, 0xed, 0x00, 0xdc, 0xc1, 0x13, 0xb1,
  0x00, 0xed, 0x00, 0xcc, 0x1c, 0x00, 0x00, 0x00, 0x00, 0x00, 0x00, 0x1b,
  0x00, 0xfa, 0x0e, 0xd4, 0x14, 0x09, 0x00, 0x00, 0x00, 0x00, 0x00, 0x00,
  0x00, 0x3d, 0x00, 0xfa, 0x00, 0xbb, 0x28, 0x00, 0x00, 0x00, 0x00, 0x00,
  0x37, 0x00, 0x00, 0x35, 0x00, 0x00, 0x00, 0x1e, 0x00, 0x00, 0x00, 0x00,
  0x00, 0x19, 0x00, 0x00, 0xce, 0x00, 0x00, 0x00, 0xe6, 0x00, 0xe6, 0x00,
  0x00, 0x00, 0x00, 0xf5, 0x00, 0xf7, 0x00, 0x00, 0x00, 0xea, 0x00, 0x00,
  0x00, 0xc8, 0xe6, 0x00, 0xd6, 0xe2, 0x00, 0xe4, 0xd1, 0x00, 0x00, 0x00,
  0x00, 0x00, 0xf4, 0x00, 0x03, 0xda, 0xef, 0x00, 0x00, 0x00, 0x00, 0x00,
  0x0b, 0x00, 0x03, 0x00, 0x02, 0x02, 0x0b, 0x04, 0x00, 0x00, 0x00, 0x00,
  0xe6, 0x04, 0x00, 0xf4, 0xeb, 0x00, 0x00, 0x00, 0x00, 0x00, 0x00, 0x00,
  0x00, 0x00, 0x00, 0x00, 0xeb, 0x00, 0x0c, 0x00, 0x00, 0x00, 0x00, 0x06,
  0x1b, 0x16, 0x00, 0x0b, 0xff, 0x08, 0x00, 0x00, 0x00, 0x0c, 0x00, 0x00,
  0x00, 0x00, 0x00, 0x00, 0x00, 0x00, 0x00, 0xe0, 0xaf, 0x10, 0x00, 0x00,
  0x8e, 0xf9, 0x00, 0xa4, 0x00, 0xc0, 0x1d, 0x00, 0x10, 0x12, 0x0d, 0x1a,
  0x00, 0x00, 0x00, 0xfb, 0x00, 0x00, 0x00, 0x00, 0x00, 0x00, 0x00, 0x00,
  0x00, 0xdd, 0x00, 0x00, 0xa0, 0x0b, 0x9b, 0xb0, 0x00, 0xd9, 0x16, 0x00,
  0xdf, 0xda, 0x00, 0x00, 0x28, 0xf6, 0xf4, 0x00, 0x39, 0x00, 0xf3, 0x00,
  0xc8, 0x00, 0x00, 0xc1, 0xf3, 0x00, 0xf5, 0x00, 0x0b, 0x00, 0x00, 0x00,
  0x00, 0x00, 0xe4, 0x00, 0xea, 0x00, 0x16, 0x00, 0x00, 0x00, 0x00, 0xd2,
  0x12, 0x16, 0x00, 0x0b, 0x00, 0x00, 0x00, 0x00, 0x24, 0x00, 0x00, 0x00,
  0x00, 0x00, 0x14, 0x00, 0x00, 0xf7, 0x00, 0x00, 0x00, 0x00, 0x00, 0x00,
  0x00, 0xc1, 0x03, 0x00, 0xf8, 0x00, 0x0c, 0xdc, 0x00, 0x00, 0x00, 0x00,
  0x12, 0x00, 0xfb, 0xf7, 0xbc, 0x04, 0xdd, 0xc9, 0x01, 0x00, 0x00, 0x00,
  0xf8, 0x00, 0x07, 0x00, 0x00, 0x0f, 0xf4, 0x00, 0xe8, 0x00, 0x00, 0x00,
  0x00, 0xe6, 0x08, 0x00, 0x11, 0xf8, 0x00, 0x00, 0x0b, 0x04, 0x00, 0xed,
  0xe5, 0x00, 0x01, 0xe7, 0x00, 0x00, 0x00, 0x00, 0x00, 0x00, 0x00, 0xdf,
  0x00, 0x00, 0x00, 0x00, 0x00, 0x00, 0x08, 0x03, 0x00, 0x00, 0x00, 0x03,
  0xfa, 0x00, 0x00, 0x00, 0x12, 0x00, 0x0e, 0xd8, 0xf1, 0x00, 0x00, 0xf6,
  0x00, 0x02, 0x00, 0x00, 0xee, 0x00, 0xd2, 0x00, 0x00, 0x00, 0x00, 0xed,
  0x00, 0x00, 0xe0, 0x00, 0x00, 0x00, 0x00, 0xf9, 0x00, 0x00, 0xe6, 0x00,
  0x00, 0x00, 0x00, 0x00, 0xfe, 0x00, 0xf6, 0x00, 0x00, 0x00, 0xef, 0x00,
  0x00, 0x00, 0x00, 0x00, 0xcd, 0x00, 0x00, 0x00, 0x00, 0x1c, 0x0c, 0xf3,
  0xeb, 0x00, 0x00, 0x00, 0x0b, 0x00, 0x02, 0x00, 0x1a, 0x00, 0x00, 0x00,
  0x00, 0x13, 0x00, 0x00, 0x00, 0x09, 0x02, 0x00, 0x00, 0x00, 0x06, 0x04,
  0x00, 0x00, 0x00, 0x00, 0x00, 0xff, 0x00, 0x00, 0x00, 0x00, 0x00, 0x00,
  0x00, 0x0f, 0x00, 0x00, 0x09, 0x00, 0x0a, 0x00, 0x00, 0x00, 0x00, 0xce,
  0x00, 0x00, 0x1d, 0x00, 0x00, 0x07, 0xfc, 0x00, 0x08, 0x00, 0xe6, 0x00,
  0x00, 0xe0, 0x00, 0x00, 0x00, 0x15, 0xeb, 0x00, 0x0b, 0x00, 0x00, 0x00,
  0x0c, 0x00, 0x00, 0x00, 0x00, 0x08, 0xe9, 0x00, 0xf2, 0x00, 0x00, 0x00,
  0x00, 0xfb, 0xed, 0x00, 0x00, 0x00, 0x00, 0xf9, 0x00, 0x00, 0x00, 0x11,
  0xf4, 0x17, 0x00, 0x00, 0xf7, 0x00, 0x05, 0x00, 0xfc, 0x00, 0x00, 0x00,
  0x00, 0x00, 0x0d, 0x00, 0x00, 0x00, 0xf1, 0xff, 0x00, 0x00, 0xed, 0x0f,
  0x00, 0x00, 0x11, 0x00, 0x00, 0x0a, 0xdc, 0x00, 0x00, 0x10, 0x00, 0x00,
  0x00, 0x00, 0x00, 0x00, 0x00, 0x00, 0x00, 0x00, 0x00, 0x05, 0x00, 0x00,
  0xe6, 0xf3, 0xfc, 0x00, 0xf9, 0xe2, 0xfb, 0x00, 0x00, 0x00, 0x2b, 0x00,
  0x0c, 0x00, 0x00, 0x00, 0xfc, 0x29, 0x00, 0xe9, 0xee, 0xef, 0x00, 0x00,
  0x00, 0x06, 0x00, 0x00, 0xf7, 0x00, 0xf8, 0x01, 0xfd, 0x00, 0xfd, 0x00,
  0xde, 0x00, 0xf1, 0x00, 0x1f, 0xe2, 0x00, 0x10, 0x00, 0x03, 0x00, 0x00,
  0x00, 0x00, 0xe7, 0x00, 0xef, 0x00, 0x00, 0xdd, 0xe2, 0x1f, 0xd8, 0xe6,
  0x00, 0xe1, 0x00, 0x00, 0xe7, 0x00, 0xe5, 0x12, 0xee, 0xd7, 0x00, 0x00,
  0x00, 0x00, 0x00, 0x13, 0x00, 0x00, 0x00, 0x13, 0x00, 0x0e, 0x00, 0x00,
  0x00, 0x00, 0xfc, 0xe9, 0xd1, 0x27, 0x00, 0xe6, 0x34, 0xda, 0x00, 0x00,
  0xed, 0x00, 0xe0, 0xf7, 0x00, 0x00, 0x1c, 0x00, 0x00, 0x00, 0x00, 0x27,
  0x00, 0x2b, 0x00, 0x00, 0x00, 0x00, 0x02, 0x15, 0xf7, 0x00, 0x00, 0x00,
  0x00, 0x18, 0xe6, 0x00, 0x00, 0x00, 0x00, 0x00, 0x0e, 0x00, 0xe0, 0x00,
  0x00, 0x00, 0x00, 0x31, 0x00, 0x32, 0x00, 0x00, 0xfc, 0xfc, 0x00, 0xf3,
  0xf5, 0xf7, 0x1f, 0x00, 0x18, 0x00, 0x00, 0x27, 0xbb, 0x23, 0x00, 0x11,
  0x00, 0x11, 0x00, 0x00, 0x18, 0x13, 0xfa, 0x00, 0x00, 0xee, 0xdb, 0x00,
  0x1c, 0x00, 0x2f, 0x00, 0x1b, 0x00, 0x00, 0x23, 0x00, 0x00, 0xef, 0x00,
  0xe5, 0xdc, 0x00, 0xd4, 0xf1, 0x00, 0x00, 0xf1, 0x00, 0x00, 0x00, 0x00,
  0xf6, 0xd6, 0xda, 0x00, 0xd9, 0xf7, 0xd1, 0x00, 0x0b, 0x00, 0x00, 0x00,
  0x04, 0x00, 0x00, 0x00, 0x00, 0x00, 0xb9, 0x00, 0xcb, 0xeb, 0x00, 0xb3,
  0xee, 0x19, 0xe9, 0x00, 0x31, 0x00, 0x00, 0x00, 0xde, 0x00, 0xe2, 0x00,
  0xda, 0x00, 0xe5, 0x00, 0x0f, 0x04, 0x00, 0x00, 0x03, 0x00, 0x00, 0x00,
  0x00, 0x00, 0xc3, 0x00, 0xe7, 0xca, 0x00, 0xcc, 0x00, 0x07, 0x00, 0xea,
  0x2b, 0x00, 0x00, 0x00, 0x00, 0x00, 0xe4, 0x00, 0x00, 0x00, 0x00, 0x00,
  0x00, 0x1c, 0x04, 0x00, 0x00, 0x00, 0xee, 0xf5, 0xc4, 0x00, 0x00, 0x00,
  0x05, 0xee, 0xf3, 0x00, 0x00, 0x05, 0x00, 0x0b, 0x0a, 0xdb, 0x00, 0x00,
  0x00, 0xd5, 0x00, 0x00, 0x00, 0x0d, 0x00, 0x00, 0x00, 0x39, 0x00, 0xd8,
  0x00, 0xcb, 0x00, 0xbe, 0xd3, 0xfd, 0x09, 0x00, 0x00, 0x00, 0x06, 0x28,
  0x2c, 0x00, 0xe9, 0x00, 0x00, 0xe2, 0x00, 0xda, 0x0a, 0xf5, 0x00, 0xe9,
  0xf5, 0xd5, 0xc3, 0xec, 0x00, 0x00, 0x14, 0xfe, 0x00, 0x18, 0x00, 0x00,
  0x00, 0x19, 0x07, 0x1b, 0xd9, 0x00, 0xfa, 0xe7, 0xff, 0xf1, 0xd5, 0x00,
  0x05, 0xe7, 0xe8, 0x00, 0x00, 0xec, 0xec, 0x00, 0x00, 0xfb, 0xac, 0x0b,
  0x00, 0x00, 0x0e, 0x00, 0x13, 0x00, 0x00, 0x0c, 0x06, 0x00, 0xc5, 0x10,
  0xa7, 0x00, 0x00, 0x00, 0xd1, 0x00, 0x03, 0xf1, 0x00, 0x00, 0x00, 0x13,
  0x00, 0xd4, 0x00, 0x00, 0xf5, 0x23, 0xc6, 0x00, 0x00, 0x00, 0x0c, 0x00,
  0x00, 0x00, 0x00, 0x00, 0x00, 0x00, 0x00, 0x00, 0xd8, 0x18, 0x00, 0x00,
  0x00, 0xe4, 0x00, 0xf6, 0x00, 0x00, 0x12, 0x0a, 0x00, 0x00, 0x00, 0x00,
  0x28, 0x18, 0x00, 0xeb, 0x00, 0x00, 0x00, 0x00, 0xf8, 0xf3, 0x00, 0xd5,
  0x00, 0x00, 0x00, 0x00, 0x00, 0x00, 0x00, 0x00, 0x14, 0xe4, 0x00, 0x00,
  0x0a, 0x00, 0x00, 0xf0, 0x00, 0x00, 0x00, 0x00, 0x00, 0xdf, 0xfc, 0x00,
  0xf8, 0xf2, 0x00, 0x00, 0x00, 0xd3, 0x00, 0xe8, 0xe9, 0x16, 0x00, 0xdd,
  0x00, 0x00, 0x00, 0xf8, 0x31, 0x00, 0xfc, 0x00, 0xd2, 0x00, 0xe0, 0x00,
  0x00, 0x24, 0x00, 0x1a, 0x00, 0xb6, 0x00, 0xe3, 0x05, 0xae, 0x00, 0x08,
  0x00, 0xee, 0x00, 0x00, 0xfe, 0x00, 0x00, 0x09, 0x00, 0xe7, 0xf0, 0x00,
  0x00, 0x00, 0xcb, 0x00, 0x00, 0xe1, 0x00, 0x05, 0x00, 0x00, 0x00, 0xdf,
  0xeb, 0x00, 0xb6, 0xe2, 0x00, 0x9c, 0x11, 0x01, 0x14, 0x00, 0x04, 0x00,
  0x17, 0x1f, 0xfd, 0x00, 0xc4, 0x04, 0x00, 0xc6, 0xd1, 0x00, 0xf7, 0x00,
  0x00, 0x00, 0x0e, 0x00, 0x00, 0x00, 0x00, 0x00, 0xea, 0x00, 0x00, 0x00,
  0x0f, 0x00, 0x14, 0x00, 0x00, 0x00, 0x00, 0x00, 0x21, 0x00, 0xdb, 0x1a,
  0x00, 0xfb, 0x06, 0xeb, 0xce, 0x00, 0x00, 0x00, 0x00, 0x00, 0xfa, 0x00,
  0x04, 0x00, 0x00, 0x00, 0x00, 0xf9, 0x00, 0xe6, 0x00, 0x00, 0x00, 0x00,
  0x00, 0xe9, 0x0c, 0x00, 0x0a, 0x00, 0xf9, 0x0b, 0x00, 0x0f, 0x00, 0xf7,
  0x00, 0x00, 0x00, 0xf1, 0x00, 0x00, 0xeb, 0x00, 0x1b, 0x00, 0x00, 0x09,
  0x00, 0x00, 0xee, 0x0b, 0x0c, 0x00, 0x0e, 0x16, 0x00, 0x00, 0x00, 0x00,
  0x04, 0x00, 0x00, 0x00, 0xf0, 0x00, 0x00, 0xf7, 0xd9, 0xe8, 0x07, 0x00,
  0x00, 0x00, 0x00, 0x00, 0x00, 0x0c, 0xf4, 0x0a, 0x00, 0xc0, 0x00, 0x00,
  0x00, 0x00, 0xd9, 0xe1, 0x00, 0xbf, 0x00, 0x00, 0xee, 0xb6, 0x00, 0xe3,
  0x00, 0xae, 0x00, 0x00, 0x00, 0xbc, 0xc9, 0x00, 0x99, 0x00, 0xe2, 0x00,
  0x00, 0xbf, 0xa5, 0x00, 0xc8, 0xf5, 0x0c, 0xf6, 0x00, 0x00, 0x0b, 0x00,
  0x00, 0xf4, 0x00, 0x1c, 0x16, 0xcb, 0x00, 0x00, 0x09, 0x00, 0x00, 0x00,
  0xea, 0xee, 0x00, 0x04, 0xc7, 0x07, 0xd3, 0xf0, 0x00, 0xf1, 0x00, 0x00,
  0x00, 0x00, 0x00, 0x00, 0x00, 0x00, 0xed, 0x00, 0xdb, 0x00, 0x00, 0xdd,
  0x00, 0xc1, 0x00, 0x00, 0x15, 0x00, 0x16, 0x0e, 0xe7, 0x00, 0x00, 0x00,
  0x00, 0x1c, 0x00, 0x0d, 0x00, 0x13, 0x00, 0x00, 0x00, 0x00, 0x00, 0x00,
  0xfb, 0x00, 0x00, 0x06, 0x00, 0x00, 0x00, 0x00, 0x00, 0xe7, 0x07, 0x14,
  0x11, 0x17, 0x18, 0x10, 0xe6, 0x00, 0x06, 0x00, 0x00, 0x00, 0x00, 0x00,
  0x1d, 0x00, 0x00, 0x00, 0x00, 0x00, 0x12, 0x00, 0x00, 0x00, 0xf8, 0xe8,
  0x00, 0x00, 0x06, 0xf1, 0x00, 0x00, 0x00, 0x00, 0x00, 0x00, 0x0c, 0x15,
  0x00, 0x1a, 0x00, 0x00, 0x00, 0x00, 0x00, 0x08, 0x1b, 0x00, 0xf9, 0xfc,
  0x00, 0x00, 0x00, 0xfc, 0x0d, 0x00, 0xf5, 0xeb, 0x00, 0xf4, 0x00, 0x00,
  0x0e, 0x00, 0x00, 0x00, 0xf9, 0x00, 0x00, 0xfd, 0x04, 0x00, 0x00, 0x00,
  0x00, 0xef, 0x00, 0x00, 0x00, 0x11, 0x00, 0x1e, 0x00, 0x09, 0xe9, 0xf5,
  0xfd, 0xfe, 0x00, 0x00, 0x00, 0x00, 0x11, 0x00, 0x00, 0x00, 0x00, 0xeb,
  0x00, 0x00, 0x00, 0x00, 0x19, 0xee, 0x10, 0x00, 0x00, 0x00, 0x00, 0x00,
  0xec, 0x00, 0x00, 0x00, 0x04, 0x0a, 0x00, 0xd3, 0xd7, 0xfd, 0xe4, 0x00,
  0x00, 0xb8, 0xeb, 0x00, 0x00, 0x00, 0x13, 0xd0, 0xf9, 0x00, 0x00, 0xfd,
  0x0e, 0xc8, 0x00, 0xee, 0x00, 0xfa, 0xcc, 0xd1, 0xea, 0xf4, 0x00, 0xe3,
  0x00, 0x00, 0x00, 0x00, 0x00, 0x06, 0x00, 0x00, 0x00, 0xcb, 0xec, 0xec,
  0xe7, 0x00, 0x00, 0xda, 0x00, 0x00, 0xe3, 0x02, 0x00, 0xfd, 0xf7, 0xd0,
  0xd5, 0xde, 0xd5, 0xca, 0x00, 0xd9, 0xf2, 0xe4, 0x00, 0x00, 0xf1, 0xe3,
  0x00, 0x00, 0x00, 0xca, 0x08, 0x00, 0x00, 0x00, 0x00, 0xed, 0x00, 0xe6,
  0xfc, 0x00, 0x00, 0xf1, 0x1b, 0x00, 0xf6, 0xca, 0x00, 0xc3, 0xee, 0x00,
  0xf3, 0xb4, 0x00, 0xd3, 0x00, 0x0e, 0x16, 0x14, 0x00, 0x00, 0x00, 0x00,
  0xf5, 0x00, 0x10, 0x00, 0x2c, 0x00, 0x0f, 0x1a, 0x00, 0x17, 0x00, 0x13,
  0x1d, 0xf5, 0x1b, 0x0a, 0x00, 0x1d, 0x00, 0x00, 0xfb, 0x16, 0x0b, 0x00,
  0x09, 0x00, 0x28, 0x00, 0xfc, 0x00, 0x00, 0x06, 0x00, 0x00, 0x00, 0x00,
  0x2a, 0x00, 0x1a, 0x1f, 0x2a, 0x12, 0x00, 0x00, 0x00, 0x00, 0x1a, 0x02,
  0x00, 0x00, 0x00, 0x00, 0x00, 0x0a, 0x00, 0x00, 0x06, 0x00, 0x00, 0x00,
  0x00, 0x0a, 0xed, 0x00, 0xee, 0xf1, 0x06, 0x00, 0xf8, 0x00, 0x11, 0x00,
  0x13, 0x0b, 0x00, 0x00, 0x00, 0x1b, 0x00, 0x07, 0x00, 0x14, 0x09, 0xea,
  0x00, 0x00, 0x00, 0x00, 0x0b, 0x09, 0x00, 0xfc, 0x00, 0xf9, 0x00, 0xf1,
  0x00, 0x00, 0x00, 0x08, 0x00, 0x24, 0x09, 0xfc, 0x00, 0x00, 0x0f, 0x00,
  0x00, 0x00, 0x00, 0x00, 0x00, 0x00, 0x00, 0x07, 0x00, 0x00, 0x14, 0x00,
  0x12, 0xfc, 0x00, 0x00, 0x10, 0x00, 0x00, 0x0c, 0x17, 0x00, 0x00, 0xfd,
  0x00, 0x21, 0x00, 0x00, 0x00, 0x00, 0x0e, 0xcd, 0x00, 0xe9, 0x00, 0x00,
  0x1f, 0x00, 0x00, 0x16, 0xdd, 0x00, 0x07, 0x05, 0x00, 0x00, 0x00, 0x06,
  0x00, 0x09, 0x00, 0x09, 0x00, 0x00, 0x00, 0x00, 0x00, 0xf4, 0x00, 0x00,
  0x00, 0x00, 0x00, 0x19, 0xf7, 0x00, 0x00, 0x00, 0xfa, 0x24, 0x00, 0xf2,
  0x08, 0x00, 0x00, 0x00, 0x00, 0xe6, 0x00, 0x00, 0x07, 0x00, 0x1c, 0x00,
  0x00, 0xf3, 0xfa, 0xef, 0x00, 0x00, 0xf9, 0x00, 0x11, 0xe9, 0x00, 0x00,
  0x06, 0x00, 0x00, 0x00, 0xce, 0x00, 0x21, 0x00, 0x00, 0x00, 0x00, 0x00,
  0xf8, 0x00, 0x16, 0x00, 0x00, 0x00, 0x00, 0xdf, 0x00, 0x00, 0x00, 0x00,
  0x00, 0x25, 0x0b, 0xe3, 0x10, 0x00, 0xf8, 0x04, 0x24, 0x21, 0xbf, 0xfb,
  0x00, 0x00, 0x2f, 0xf4, 0x00, 0xe6, 0xd1, 0x00, 0xe3, 0xef, 0x17, 0x00,
  0x00, 0x00, 0x00, 0x10, 0x06, 0x00, 0x00, 0x00, 0x00, 0x11, 0x17, 0x0b,
  0x00, 0xee, 0x00, 0x0e, 0xd0, 0x00, 0x00, 0xf3, 0x00, 0x00, 0x04, 0x0b,
  0x00, 0x00, 0x00, 0xdc, 0x00, 0x15, 0x00, 0x00, 0x00, 0x00, 0x16, 0x00,
  0xe5, 0x01, 0xfd, 0x00, 0x11, 0x0d, 0x06, 0x15, 0xf1, 0x09, 0x00, 0x00,
  0x00, 0x0b, 0x00, 0xef, 0x00, 0x00, 0x05, 0x00, 0xf5, 0x00, 0x00, 0xe7,
  0x00, 0xfb, 0x00, 0x00, 0x00, 0x0b, 0x00, 0x00, 0xe8, 0x15, 0xf6, 0xf3,
  0xe3, 0x00, 0x00, 0xe3, 0x00, 0x00, 0x00, 0x00, 0x00, 0x00, 0x00, 0x00,
  0xfa, 0x00, 0x00, 0xf2, 0xf6, 0x00, 0x00, 0x00, 0x00, 0xf6, 0x00, 0x00,
  0xf3, 0x00, 0x14, 0xf2, 0x00, 0x10, 0x00, 0x00, 0xde, 0x00, 0xfa, 0x00,
  0xfd, 0x00, 0xe7, 0x10, 0x11, 0x00, 0xd1, 0x00, 0x00, 0x00, 0x29, 0x11,
  0xfa, 0x00, 0x00, 0xe7, 0x00, 0x00, 0x00, 0x03, 0x00, 0xfb, 0xf0, 0x00,
  0x00, 0x00, 0xdf, 0x00, 0xd4, 0x00, 0xda, 0xe7, 0xed, 0xea, 0xeb, 0xd3,
  0x00, 0xe8, 0xd2, 0xf9, 0x3a, 0xe5, 0x20, 0x00, 0x00, 0x00, 0xf7, 0x00,
  0x00, 0x00, 0x00, 0x00, 0x13, 0xfd, 0x15, 0x18, 0x2c, 0x00, 0xfc, 0x00,
  0x00, 0x00, 0xec, 0x0e, 0x04, 0x00, 0x0f, 0x00, 0x00, 0x00, 0x00, 0x00,
  0x00, 0x00, 0x00, 0x00, 0x00, 0xeb, 0xe9, 0xe7, 0x00, 0x0f, 0x08, 0x00,
  0x00, 0x17, 0x00, 0x10, 0xf3, 0x00, 0x00, 0xfc, 0xfa, 0xf2, 0x00, 0x00,
  0x1e, 0x00, 0x00, 0x00, 0x00, 0x13, 0x00, 0x00, 0x00, 0x00, 0x02, 0x00,
  0x00, 0x2a, 0x00, 0x0d, 0x00, 0x00, 0x00, 0x00, 0x0d, 0x00, 0x00, 0xd8,
  0x00, 0x00, 0x00, 0x00, 0x00, 0x00, 0xe3, 0xe3, 0xe2, 0xdf, 0xc2, 0xe7,
  0x00, 0x0f, 0x00, 0xd3, 0x00, 0xce, 0x00, 0x00, 0xfb, 0xc8, 0x00, 0x00,
  0x00, 0xd6, 0x00, 0x08, 0x00, 0x00, 0x00, 0x00, 0x00, 0xfd, 0xe7, 0xf7,
  0xbb, 0x00, 0x00, 0x00, 0x00, 0xb7, 0xcf, 0xe5, 0x00, 0x15, 0x00, 0xe5,
  0x14, 0xc2, 0x0c, 0x00, 0xe3, 0xd7, 0x00, 0x00, 0xd2, 0xd5, 0x00, 0x0c,
  0x00, 0xfb, 0x00, 0xf0, 0x00, 0x00, 0x00, 0x00, 0x00, 0x14, 0x00, 0x00,
  0x00, 0xc2, 0x00, 0x00, 0xf2, 0x00, 0x00, 0x00, 0x00, 0x00, 0x00, 0x03,
  0xc8, 0xd2, 0x00, 0x00, 0xb0, 0x00, 0x00, 0x00, 0x00, 0x0b, 0x00, 0xee,
  0x00, 0x00, 0x00, 0x00, 0x00, 0x00, 0x00, 0x09, 0xe1, 0xc9, 0x00, 0xef,
  0xf8, 0x00, 0x00, 0x00, 0x06, 0xde, 0x16, 0x11, 0xe9, 0x00, 0xdb, 0xf6,
  0xa8, 0x00, 0x00, 0xf9, 0x00, 0x00, 0x00, 0x00, 0xcd, 0xf9, 0x00, 0x00,
  0x00, 0xd3, 0xfc, 0x00, 0xf1, 0xd2, 0xe8, 0x00, 0x1e, 0x00, 0xd0, 0xd9,
  0x00, 0x00, 0x00, 0x00, 0x00, 0xcb, 0xda, 0xc9, 0x00, 0x00, 0xe2, 0xdd,
  0x00, 0x18, 0xe4, 0xe8, 0xf6, 0x00, 0xe6, 0x00, 0xf2, 0x00, 0x00, 0x00,
  0xc8, 0x00, 0xd5, 0x00, 0xfa, 0x21, 0x00, 0x00, 0x00, 0x00, 0x00, 0x00,
  0x00, 0x00, 0x0b, 0x00, 0x00, 0x00, 0xc2, 0x00, 0x00, 0x00, 0xfa, 0x08,
  0x00, 0x00, 0xe0, 0x00, 0x00, 0x07, 0x00, 0x00, 0x00, 0x00, 0x00, 0x00,
  0x00, 0x00, 0x00, 0x00, 0x00, 0x00, 0x00, 0x00, 0x00, 0x00, 0x00, 0x00,
  0x0d, 0x00, 0x00, 0x00, 0x03, 0x05, 0xfd, 0x17, 0x00, 0x00, 0x00, 0x00,
  0x00, 0x00, 0xf0, 0x00, 0xec, 0x00, 0x00, 0xff, 0xe0, 0xd8, 0x00, 0x17,
  0xe4, 0x00, 0x06, 0xe0, 0x00, 0x00, 0x00, 0x00, 0x00, 0x00, 0x00, 0x00,
  0x00, 0xc1, 0xdf, 0x13, 0xf6, 0xf9, 0x01, 0xdb, 0x00, 0x00, 0x00, 0x00,
  0xf3, 0x11, 0xf8, 0x00, 0xf5, 0xd4, 0x05, 0x13, 0x00, 0x00, 0x00, 0x00,
  0x00, 0x00, 0x0a, 0x00, 0x00, 0x09, 0x00, 0xe9, 0x02, 0x00, 0xe3, 0xf0,
  0x02, 0x00, 0x00, 0xf1, 0x00, 0x00, 0x00, 0xe9, 0x02, 0x0c, 0x00, 0xfc,
  0x08, 0x00, 0x00, 0x17, 0xf2, 0x00, 0x00, 0x00, 0x00, 0x06, 0x07, 0x06,
  0xfe, 0x00, 0xdc, 0x00, 0x00, 0x00, 0xee, 0x00, 0x00, 0x00, 0x0b, 0x1f,
  0x00, 0x00, 0x00, 0xee, 0xf0, 0x00, 0xef, 0xd3, 0x00, 0x00, 0x00, 0x00,
  0x00, 0xf1, 0x00, 0x07, 0x00, 0x0c, 0x00, 0x00, 0x00, 0xfb, 0x00, 0xe5,
  0x00, 0x00, 0x00, 0x00, 0x00, 0x00, 0x0e, 0x00, 0x07, 0x09, 0x00, 0xee,
  0xd5, 0x14, 0x00, 0x00, 0x00, 0x00, 0x0b, 0x00, 0x00, 0x00, 0x00, 0x00,
  0x00, 0x00, 0x00, 0x1a, 0x00, 0x00, 0x00, 0xf5, 0x00, 0x00, 0x00, 0x00,
  0x00, 0xde, 0x00, 0x00, 0x1a, 0xf5, 0x00, 0x00, 0xf3, 0x00, 0x00, 0x00,
  0xce, 0x00, 0x10, 0x0c, 0x00, 0x00, 0xf3, 0x0b, 0x00, 0x00, 0x00, 0x00,
  0xfe, 0x00, 0x00, 0x00, 0xfc, 0x00, 0x00, 0x05, 0x00, 0x00, 0x00, 0x00,
  0xf4, 0x00, 0x00, 0xf4, 0x06, 0x00, 0x00, 0x00, 0x00, 0x00, 0x00, 0x00,
  0x00, 0x00, 0x00, 0x00, 0x1c, 0x00, 0x00, 0x00, 0x00, 0x00, 0x00, 0x00,
  0x00, 0x00, 0x08, 0x00, 0x00, 0xf9, 0x0e, 0x0f, 0x00, 0x00, 0x00, 0x03,
  0x00, 0x00, 0x00, 0xfd, 0xcd, 0x00, 0x19, 0x00, 0x10, 0x03, 0x00, 0x00,
  0x00, 0x12, 0x0f, 0x00, 0xeb, 0xe6, 0x0d, 0xe9, 0xf8, 0x00, 0x00, 0x00,
  0x00, 0x00, 0x0f, 0x04, 0x00, 0x00, 0x00, 0x00, 0x00, 0x11, 0x00, 0x15,
  0xf3, 0xd8, 0x00, 0x00, 0x00, 0x00, 0xe3, 0xe9, 0x00, 0x00, 0xca, 0x00,
  0xe5, 0x21, 0x05, 0xbe, 0x00, 0xf6, 0x00, 0xf5, 0xfe, 0xb9, 0x00, 0x00,
  0x00, 0xe0, 0x18, 0x00, 0xfe, 0x00, 0x00, 0x00, 0xd3, 0xd3, 0x00, 0x00,
  0xc7, 0x13, 0x00, 0xfa, 0x00, 0x00, 0x00, 0x07, 0x00, 0x00, 0x00, 0xd3,
  0x00, 0xcb, 0xf1, 0xf6, 0x00, 0xc2, 0x00, 0xfa, 0x00, 0x00, 0x12, 0x10,
  0x00, 0x1b, 0xf6, 0xd4, 0xd7, 0x00, 0x00, 0x00, 0xe9, 0x00, 0xe7, 0x00,
  0x00, 0x03, 0x00, 0x16, 0x05, 0x00, 0xe9, 0x08, 0x00, 0xe9, 0x09, 0x00,
  0xf1, 0xec, 0x00, 0x00, 0xfd, 0x00, 0x00, 0x00, 0x00, 0x00, 0x00, 0xf1,
  0xca, 0x00, 0x05, 0x14, 0x08, 0x00, 0x00, 0x09, 0x17, 0x00, 0x00, 0x00,
  0x00, 0x00, 0x09, 0x13, 0x04, 0x0d, 0x02, 0x00, 0x00, 0xf8, 0x00, 0xfc,
  0x00, 0x00, 0x12, 0x00, 0x1e, 0xf0, 0x00, 0x0f, 0xf7, 0x00, 0x00, 0x25,
  0x00, 0x00, 0x00, 0x04, 0x00, 0x00, 0x00, 0xf0, 0xf8, 0x0c, 0x07, 0xf8,
  0x04, 0x0f, 0x00, 0xfc, 0x09, 0x00, 0x00, 0x09, 0x00, 0x00, 0x00, 0xe6,
  0xf6, 0x00, 0xec, 0x00, 0x00, 0x10, 0x00, 0x00, 0x2c, 0x00, 0x00, 0x00,
  0x00, 0x00, 0x00, 0x00, 0x13, 0xd2, 0xf1, 0x00, 0x00, 0x00, 0x1c, 0x11,
  0x14, 0x00, 0x00, 0x08, 0xee, 0x24, 0xfb, 0xed, 0x00, 0x00, 0xec, 0x00,
  0xc5, 0x00, 0x00, 0x00, 0x11, 0x07, 0x00, 0x00, 0x0c, 0xf7, 0x00, 0xfe,
  0xf9, 0x00, 0x00, 0x00, 0x00, 0x00, 0x00, 0x00, 0x0e, 0x00, 0x03, 0x07,
  0x00, 0x00, 0x00, 0x16, 0x00, 0x00, 0x0b, 0xea, 0xa7, 0xdc, 0x10, 0x12,
  0x00, 0x00, 0x0e, 0x00, 0xf1, 0x04, 0x00, 0x00, 0x00, 0x00, 0x00, 0xf1,
  0xec, 0x00, 0x00, 0x00, 0xcc, 0x00, 0x10, 0xd1, 0x10, 0xc5, 0x0d, 0x00,
  0xf4, 0x00, 0x00, 0x00, 0x00, 0xf9, 0x14, 0x00, 0x00, 0x00, 0x02, 0x05,
  0x19, 0x00, 0x00, 0x00, 0xf4, 0x00, 0x00, 0x00, 0xe9, 0x09, 0x00, 0x00,
  0xc7, 0x00, 0xf9, 0x00, 0xf4, 0x00, 0x00, 0xe5, 0x14, 0x00, 0x00, 0x00,
  0x17, 0x00, 0x00, 0xeb, 0xf8, 0x00, 0xf3, 0x00, 0x1c, 0x00, 0x00, 0x00,
  0x00, 0x00, 0x00, 0xde, 0x00, 0x00, 0x0b, 0x00, 0x00, 0x00, 0x00, 0x00,
  0x00, 0x00, 0x09, 0xe9, 0xf8, 0xdc, 0xf9, 0xf7, 0x00, 0xc7, 0xbd, 0x03,
  0x00, 0x00, 0xd5, 0x00, 0x00, 0xf5, 0x00, 0x00, 0xcf, 0x00, 0xe3, 0x00,
  0x00, 0xaf, 0x1b, 0x00, 0x00, 0x00, 0x08, 0x12, 0x00, 0x00, 0x00, 0x00,
  0xf5, 0x08, 0xf3, 0xf6, 0xcb, 0x00, 0x00, 0x00, 0x00, 0x00, 0xe6, 0x00,
  0x1a, 0xeb, 0xfc, 0xf7, 0xf0, 0x0c, 0xda, 0xd1, 0x00, 0x00, 0xfa, 0x00,
  0xdd, 0x00, 0x00, 0x00, 0x24, 0xc9, 0x00, 0x00, 0xf0, 0x09, 0x00, 0x00,
  0xbc, 0x00, 0x12, 0xe7, 0x00, 0x00, 0xdd, 0x12, 0x00, 0x00, 0x14, 0x00,
  0xef, 0xf9, 0x00, 0x00, 0x00, 0x00, 0x00, 0x00, 0x00, 0x09, 0xdf, 0xf0,
  0xfe, 0xdb, 0xe2, 0x12, 0x00, 0x00, 0x00, 0x00, 0x00, 0x00, 0x10, 0x00,
  0x00, 0x00, 0x06, 0x00, 0x10, 0x00, 0x00, 0xf1, 0xef, 0x00, 0xdd, 0x07,
  0x08, 0xe6, 0x10, 0x00, 0x00, 0x00, 0xd5, 0x00, 0xf9, 0xed, 0xee, 0x00,
  0x00, 0x00, 0xef, 0xdd, 0x00, 0x00, 0x00, 0x00, 0x00, 0x00, 0x07, 0x00,
  0x00, 0x00, 0x04, 0x00, 0x00, 0x00, 0x00, 0x00, 0xcf, 0x00, 0xc5, 0xe6,
  0xeb, 0x00, 0x00, 0x00, 0xde, 0x00, 0xb0, 0x01, 0xe5, 0xd8, 0xc2, 0x00,
  0x00, 0x19, 0x00, 0x00, 0xea, 0xdb, 0x00, 0xce, 0x0c, 0x00, 0x00, 0xbd,
  0x00, 0xfd, 0x00, 0x00, 0x00, 0x11, 0x00, 0x00, 0x00, 0x00, 0xb1, 0x00,
  0x00, 0x00, 0x81, 0xe8, 0xd1, 0x00, 0xd1, 0x00, 0x00, 0x0c, 0x11, 0xed,
  0x00, 0x00, 0x00, 0x00, 0x00, 0x00, 0x04, 0xc5, 0x0b, 0x20, 0xcb, 0xcd,
  0x00, 0x00, 0xca, 0x00, 0x00, 0x9b, 0xe7, 0xe9, 0xe4, 0xed, 0xb3, 0x00,
  0xd9, 0x00, 0x00, 0xe3, 0x00, 0x00, 0x00, 0x00, 0xcf, 0xeb, 0x00, 0x9e,
  0x2a, 0xf3, 0x00, 0xf8, 0x00, 0x0b, 0xbc, 0x00, 0x00, 0x00, 0xbc, 0x00,
  0x17, 0x00, 0x00, 0x00, 0xe3, 0xef, 0xdc, 0xff, 0xef, 0x00, 0xdf, 0xe1,
  0x00, 0xb2, 0x15, 0xed, 0xd2, 0x00, 0x00, 0xaf, 0x00, 0xed, 0x00, 0x00,
  0x00, 0xee, 0xf0, 0xb6, 0xe5, 0x00, 0xe1, 0xb5, 0x00, 0x00, 0xcd, 0xb6,
  0xf2, 0xdd, 0xdd, 0x00, 0xd9, 0x00, 0x00, 0x00, 0x0f, 0xd3, 0xe3, 0x00,
  0x00, 0xd6, 0xb2, 0xdb, 0x00, 0xdc, 0x00, 0xf4, 0x00, 0x10, 0x00, 0x00,
  0x1a, 0x0e, 0x00, 0x00, 0x00, 0x00, 0x00, 0x11, 0x00, 0x00, 0x00, 0x00,
  0xb4, 0x00, 0xbc, 0xac, 0xf8, 0x00, 0x00, 0x00, 0x16, 0x00, 0x00, 0x00,
  0x00, 0x00, 0x00, 0xf6, 0x0a, 0x04, 0x00, 0x00, 0x04, 0x00, 0x00, 0x11,
  0x00, 0x09, 0x00, 0x00, 0x00, 0x08, 0xd5, 0xcd, 0xeb, 0x00, 0x00, 0xfa,
  0xe5, 0xe4, 0x00, 0x00, 0x00, 0x00, 0x00, 0x00, 0x24, 0xf9, 0x07, 0x00,
  0x00, 0x00, 0x00, 0x00, 0x08, 0xf0, 0x08, 0x00, 0x00, 0x00, 0x00, 0x00,
  0xdb, 0x00, 0x00, 0xd3, 0x00, 0x07, 0x00, 0x00, 0xc2, 0x00, 0x00, 0x00,
  0x00, 0x07, 0x00, 0x00, 0x00, 0x00, 0x09, 0xf7, 0x00, 0x00, 0x04, 0xe1,
  0x00, 0xfb, 0x00, 0x00, 0xd7, 0xc3, 0x0f, 0xcd, 0x00, 0x00, 0x00, 0x00,
  0x00, 0x00, 0xf6, 0x00, 0xe4, 0x00, 0x07, 0x00, 0x00, 0x03, 0x00, 0x00,
  0x00, 0x0d, 0x00, 0x07, 0xf4, 0x00, 0x00, 0x00, 0xe7, 0xd8, 0x00, 0x00,
  0xac, 0x00, 0x00, 0xe5, 0x09, 0x00, 0xfb, 0xfd, 0x00, 0x00, 0xeb, 0xf4,
  0x00, 0xf2, 0x00, 0xd8, 0x0b, 0x0b, 0x03, 0x05, 0x00, 0x00, 0x00, 0x00,
  0xde, 0x00, 0xda, 0x00, 0x00, 0x8d, 0x00, 0x02, 0x00, 0x10, 0x03, 0xfd,
  0x2d, 0x13, 0xfe, 0x00, 0xe5, 0x00, 0xec, 0x00, 0x00, 0x00, 0x00, 0xfe,
  0xf0, 0xed, 0x00, 0x2c, 0xf2, 0x00, 0xd9, 0x00, 0xe6, 0x00, 0x00, 0x00,
  0x0d, 0xd6, 0x09, 0x00, 0x02, 0x00, 0x00, 0x00, 0x18, 0x08, 0x00, 0x00,
  0x01, 0x00, 0x00, 0x00, 0xd9, 0x00, 0x00, 0x00, 0x00, 0x15, 0x10, 0x00,
  0x17, 0x00, 0x00, 0x00, 0x00, 0x00, 0x00, 0x00, 0x00, 0xf3, 0xec, 0x00,
  0xf9, 0x00, 0x00, 0x00, 0x00, 0xd0, 0x00, 0x00, 0x29, 0x19, 0x17, 0x00,
  0x00, 0xf4, 0x00, 0x0a, 0x00, 0x00, 0x00, 0x00, 0x18, 0x12, 0x07, 0xe6,
  0x00, 0x00, 0xd9, 0x0a, 0x00, 0x00, 0x00, 0xef, 0x0a, 0xef, 0x00, 0x00,
  0x00, 0x00, 0x00, 0x00, 0xdd, 0x00, 0x00, 0xe1, 0xe5, 0x00, 0x00, 0x00,
  0x00, 0x08, 0x00, 0x00, 0x00, 0x01, 0x0c, 0x00, 0xdb, 0x00, 0x00, 0x00,
  0x00, 0xea, 0x00, 0xf8, 0xea, 0x00, 0x00, 0x00, 0x14, 0x00, 0xf0, 0x10,
  0xcd, 0x00, 0x00, 0x00, 0x00, 0x00, 0x0d, 0xf3, 0x00, 0x00, 0x00, 0x00,
  0x00, 0xf8, 0x00, 0x00, 0x00, 0x00, 0x00, 0x00, 0x00, 0xe2, 0x0d, 0x00,
  0x00, 0x00, 0x0e, 0x00, 0x00, 0xde, 0x00, 0x06, 0x00, 0xf7, 0x00, 0x00,
  0x00, 0xdb, 0x04, 0x00, 0xa4, 0x00, 0x00, 0x00, 0x00, 0x00, 0xc1, 0x00,
  0x00, 0x00, 0x00, 0xee, 0xdd, 0x00, 0x00, 0x0f, 0x00, 0xdd, 0x00, 0x00,
  0x00, 0x00, 0x00, 0x00, 0x00, 0x13, 0x00, 0x0f, 0x00, 0x00, 0x00, 0x0c,
  0x00, 0x26, 0xd8, 0x00, 0x13, 0x1d, 0x00, 0x00, 0x00, 0xf2, 0x00, 0x00,
  0x00, 0x00, 0xf3, 0x00, 0x00, 0xbe, 0x00, 0x00, 0x00, 0x00, 0x00, 0x00,
  0x1a, 0xfa, 0x16, 0x00, 0x00, 0x00, 0x00, 0x08, 0x00, 0x00, 0xf8, 0x00,
  0x00, 0x00, 0x02, 0xe9, 0xf5, 0xe3, 0x04, 0x02, 0x00, 0x00, 0x09, 0x00,
  0x09, 0x00, 0x00, 0xeb, 0x05, 0x00, 0xf7, 0x11, 0xed, 0xd9, 0x00, 0xeb,
  0x00, 0x00, 0xe1, 0xea, 0x00, 0x00, 0x0d, 0x04, 0xe6, 0x00, 0xce, 0x00,
  0x00, 0x15, 0x01, 0x0b, 0x00, 0x00, 0x00, 0xed, 0x02, 0x00, 0xbb, 0xfe,
  0x00, 0xf2, 0xe7, 0x0f, 0x00, 0xdb, 0xfa, 0x00, 0xc5, 0x00, 0x06, 0x00,
  0x11, 0x00, 0x00, 0x00, 0x00, 0xab, 0xdc, 0xed, 0xe4, 0x00, 0x17, 0xfb,
  0x00, 0x06, 0xf5, 0xf8, 0xef, 0x00, 0x00, 0x00, 0xfa, 0xf2, 0xfc, 0x00,
  0x00, 0xed, 0xfd, 0x00, 0x00, 0x04, 0xec, 0xe8, 0x00, 0xef, 0xed, 0xe3,
  0xfc, 0xce, 0x00, 0xe6, 0x00, 0xfd, 0x11, 0x00, 0x00, 0x00, 0x00, 0xf5,
  0xf2, 0x00, 0x00, 0xf5, 0x00, 0x00, 0x00, 0xe9, 0x00, 0xf9, 0x00, 0x07,
  0x04, 0x0b, 0xf7, 0x00, 0x00, 0x00, 0x00, 0xcf, 0x00, 0xfc, 0xf6, 0xfe,
  0x00, 0x00, 0x04, 0x16, 0x00, 0x09, 0x0e, 0xf0, 0x00, 0x00, 0x00, 0x08,
  0xd9, 0x1d, 0x01, 0x00, 0x00, 0x00, 0xf5, 0x00, 0x00, 0x17, 0xc6, 0x00,
  0xf4, 0xe5, 0x07, 0x00, 0x00, 0x00, 0x00, 0x00, 0xec, 0x00, 0x00, 0x00,
  0x00, 0x18, 0x05, 0xe4, 0x00, 0x00, 0xf6, 0x00, 0x00, 0x1a, 0x00, 0x00,
  0x00, 0x00, 0x00, 0x00, 0x00, 0x00, 0x00, 0x00, 0x0d, 0xd8, 0x10, 0x0b,
  0xcc, 0x00, 0xda, 0xe2, 0xad, 0x0d, 0x00, 0xe6, 0x00, 0xdf, 0x0b, 0x00,
  0x00, 0xfc, 0x00, 0x0f, 0x00, 0xf2, 0xe4, 0x00, 0xcd, 0x00, 0xd9, 0x00,
  0x00, 0xea, 0x03, 0xdd, 0x00, 0xf2, 0x00, 0x00, 0x00, 0x00, 0x00, 0xec,
  0x02, 0xff, 0xff, 0xff, 0x04, 0x00, 0x00, 0x00, 0x28, 0x00, 0x00, 0x00,
  0x85, 0x01, 0x00, 0x00, 0x3e, 0x06, 0x00, 0x00, 0x56, 0xfd, 0xff, 0xff,
  0x7e, 0xfc, 0xff, 0xff, 0xbe, 0xfd, 0xff, 0xff, 0x58, 0xff, 0xff, 0xff,
  0xa5, 0x00, 0x00, 0x00, 0x07, 0x01, 0x00, 0x00, 0x46, 0xff, 0xff, 0xff,
  0xa2, 0x01, 0x00, 0x00, 0x36, 0xff, 0xff, 0xff, 0x04, 0x00, 0x00, 0x00,
  0x08, 0x00, 0x00, 0x00, 0xff, 0xff, 0xff, 0xff, 0x20, 0x03, 0x00, 0x00,
  0x3c, 0xf0, 0xff, 0xff, 0x40, 0xf0, 0xff, 0xff, 0x0f, 0x00, 0x00, 0x00,
  0x4d, 0x4c, 0x49, 0x52, 0x20, 0x43, 0x6f, 0x6e, 0x76, 0x65, 0x72, 0x74,
  0x65, 0x64, 0x2e, 0x00, 0x01, 0x00, 0x00, 0x00, 0x14, 0x00, 0x00, 0x00,
  0x00, 0x00, 0x0e, 0x00, 0x18, 0x00, 0x14, 0x00, 0x10, 0x00, 0x0c, 0x00,
  0x08, 0x00, 0x04, 0x00, 0x0e, 0x00, 0x00, 0x00, 0x14, 0x00, 0x00, 0x00,
  0x1c, 0x00, 0x00, 0x00, 0x54, 0x02, 0x00, 0x00, 0x58, 0x02, 0x00, 0x00,
  0x5c, 0x02, 0x00, 0x00, 0x04, 0x00, 0x00, 0x00, 0x6d, 0x61, 0x69, 0x6e,
  0x00, 0x00, 0x00, 0x00, 0x09, 0x00, 0x00, 0x00, 0x1c, 0x02, 0x00, 0x00,
  0xbc, 0x01, 0x00, 0x00, 0x58, 0x01, 0x00, 0x00, 0x10, 0x01, 0x00, 0x00,
  0xcc, 0x00, 0x00, 0x00, 0xa4, 0x00, 0x00, 0x00, 0x60, 0x00, 0x00, 0x00,
  0x24, 0x00, 0x00, 0x00, 0x04, 0x00, 0x00, 0x00, 0x12, 0xfe, 0xff, 0xff,
  0x08, 0x00, 0x00, 0x00, 0x0c, 0x00, 0x00, 0x00, 0x01, 0x00, 0x00, 0x00,
  0x10, 0x00, 0x00, 0x00, 0x01, 0x00, 0x00, 0x00, 0x0f, 0x00, 0x00, 0x00,
  0x8e, 0xfe, 0xff, 0xff, 0x1c, 0x00, 0x00, 0x00, 0x00, 0x00, 0x00, 0x09,
  0x1c, 0x00, 0x00, 0x00, 0x20, 0x00, 0x00, 0x00, 0x05, 0x00, 0x00, 0x00,
  0x00, 0x00, 0x06, 0x00, 0x08, 0x00, 0x04, 0x00, 0x06, 0x00, 0x00, 0x00,
  0x00, 0x00, 0x80, 0x3f, 0x01, 0x00, 0x00, 0x00, 0x0f, 0x00, 0x00, 0x00,
  0x01, 0x00, 0x00, 0x00, 0x0e, 0x00, 0x00, 0x00, 0xc6, 0xfe, 0xff, 0xff,
  0x14, 0x00, 0x00, 0x00, 0x00, 0x00, 0x00, 0x08, 0x10, 0x00, 0x00, 0x00,
  0x14, 0x00, 0x00, 0x00, 0x04, 0x00, 0x00, 0x00, 0x28, 0xf1, 0xff, 0xff,
  0x01, 0x00, 0x00, 0x00, 0x0e, 0x00, 0x00, 0x00, 0x03, 0x00, 0x00, 0x00,
  0x0d, 0x00, 0x00, 0x00, 0x03, 0x00, 0x00, 0x00, 0x02, 0x00, 0x00, 0x00,
  0x00, 0x00, 0x0a, 0x00, 0x10, 0x00, 0x0c, 0x00, 0x08, 0x00, 0x04, 0x00,
  0x0a, 0x00, 0x00, 0x00, 0x0c, 0x00, 0x00, 0x00, 0x10, 0x00, 0x00, 0x00,
  0x03, 0x00, 0x00, 0x00, 0x01, 0x00, 0x00, 0x00, 0x0d, 0x00, 0x00, 0x00,
  0x02, 0x00, 0x00, 0x00, 0x0c, 0x00, 0x00, 0x00, 0x01, 0x00, 0x00, 0x00,
  0x2a, 0xff, 0xff, 0xff, 0x14, 0x00, 0x00, 0x00, 0x00, 0x00, 0x00, 0x05,
  0x24, 0x00, 0x00, 0x00, 0x28, 0x00, 0x00, 0x00, 0x02, 0x00, 0x00, 0x00,
  0x7a, 0xff, 0xff, 0xff, 0x02, 0x00, 0x00, 0x00, 0x02, 0x00, 0x00, 0x00,
  0x02, 0x00, 0x00, 0x00, 0x02, 0x00, 0x00, 0x00, 0x00, 0x00, 0x00, 0x01,
  0x01, 0x00, 0x00, 0x00, 0x0c, 0x00, 0x00, 0x00, 0x01, 0x00, 0x00, 0x00,
  0x0b, 0x00, 0x00, 0x00, 0x6a, 0xff, 0xff, 0xff, 0x14, 0x00, 0x00, 0x00,
  0x00, 0x00, 0x00, 0x01, 0x20, 0x00, 0x00, 0x00, 0x24, 0x00, 0x00, 0x00,
  0x01, 0x00, 0x00, 0x00, 0x5c, 0xff, 0xff, 0xff, 0x00, 0x00, 0x00, 0x01,
  0x01, 0x00, 0x00, 0x00, 0x01, 0x00, 0x00, 0x00, 0x00, 0x00, 0x00, 0x01,
  0x01, 0x00, 0x00, 0x00, 0x0b, 0x00, 0x00, 0x00, 0x03, 0x00, 0x00, 0x00,
  0x0a, 0x00, 0x00, 0x00, 0x05, 0x00, 0x00, 0x00, 0x04, 0x00, 0x00, 0x00,
  0xae, 0xff, 0xff, 0xff, 0x24, 0x00, 0x00, 0x00, 0x00, 0x00, 0x00, 0x05,
  0x34, 0x00, 0x00, 0x00, 0x38, 0x00, 0x00, 0x00, 0x02, 0x00, 0x00, 0x00,
  0x00, 0x00, 0x0e, 0x00, 0x18, 0x00, 0x17, 0x00, 0x10, 0x00, 0x0c, 0x00,
  0x08, 0x00, 0x04, 0x00, 0x0e, 0x00, 0x00, 0x00, 0x02, 0x00, 0x00, 0x00,
  0x02, 0x00, 0x00, 0x00, 0x02, 0x00, 0x00, 0x00, 0x02, 0x00, 0x00, 0x00,
  0x00, 0x00, 0x00, 0x01, 0x01, 0x00, 0x00, 0x00, 0x0a, 0x00, 0x00, 0x00,
  0x01, 0x00, 0x00, 0x00, 0x09, 0x00, 0x00, 0x00, 0x00, 0x00, 0x0e, 0x00,
  0x18, 0x00, 0x14, 0x00, 0x10, 0x00, 0x0c, 0x00, 0x0b, 0x00, 0x04, 0x00,
  0x0e, 0x00, 0x00, 0x00, 0x20, 0x00, 0x00, 0x00, 0x00, 0x00, 0x00, 0x01,
  0x2c, 0x00, 0x00, 0x00, 0x30, 0x00, 0x00, 0x00, 0x01, 0x00, 0x00, 0x00,
  0x0c, 0x00, 0x14, 0x00, 0x13, 0x00, 0x0c, 0x00, 0x08, 0x00, 0x07, 0x00,
  0x0c, 0x00, 0x00, 0x00, 0x00, 0x00, 0x00, 0x01, 0x01, 0x00, 0x00, 0x00,
  0x01, 0x00, 0x00, 0x00, 0x00, 0x00, 0x00, 0x01, 0x01, 0x00, 0x00, 0x00,
  0x09, 0x00, 0x00, 0x00, 0x03, 0x00, 0x00, 0x00, 0x08, 0x00, 0x00, 0x00,
  0x07, 0x00, 0x00, 0x00, 0x06, 0x00, 0x00, 0x00, 0x00, 0x00, 0x0a, 0x00,
  0x0c, 0x00, 0x00, 0x00, 0x08, 0x00, 0x04, 0x00, 0x0a, 0x00, 0x00, 0x00,
  0x08, 0x00, 0x00, 0x00, 0x0c, 0x00, 0x00, 0x00, 0x01, 0x00, 0x00, 0x00,
  0x08, 0x00, 0x00, 0x00, 0x01, 0x00, 0x00, 0x00, 0x00, 0x00, 0x00, 0x00,
  0x01, 0x00, 0x00, 0x00, 0x10, 0x00, 0x00, 0x00, 0x01, 0x00, 0x00, 0x00,
  0x00, 0x00, 0x00, 0x00, 0x11, 0x00, 0x00, 0x00, 0x68, 0x0d, 0x00, 0x00,
  0xfc, 0x0c, 0x00, 0x00, 0x6c, 0x0c, 0x00, 0x00, 0x00, 0x0c, 0x00, 0x00,
  0x0c, 0x0a, 0x00, 0x00, 0x20, 0x08, 0x00, 0x00, 0xec, 0x06, 0x00, 0x00,
  0xc0, 0x05, 0x00, 0x00, 0x3c, 0x05, 0x00, 0x00, 0x48, 0x04, 0x00, 0x00,
  0xac, 0x03, 0x00, 0x00, 0xb8, 0x02, 0x00, 0x00, 0x1c, 0x02, 0x00, 0x00,
  0x98, 0x01, 0x00, 0x00, 0xfc, 0x00, 0x00, 0x00, 0x80, 0x00, 0x00, 0x00,
  0x04, 0x00, 0x00, 0x00, 0xf2, 0xf2, 0xff, 0xff, 0x00, 0x00, 0x00, 0x01,
  0x18, 0x00, 0x00, 0x00, 0x20, 0x00, 0x00, 0x00, 0x3c, 0x00, 0x00, 0x00,
  0x11, 0x00, 0x00, 0x00, 0x00, 0x00, 0x00, 0x03, 0x50, 0x00, 0x00, 0x00,
  0x02, 0x00, 0x00, 0x00, 0xff, 0xff, 0xff, 0xff, 0x0a, 0x00, 0x00, 0x00,
  0xd4, 0xf2, 0xff, 0xff, 0x08, 0x00, 0x00, 0x00, 0x10, 0x00, 0x00, 0x00,
  0x01, 0x00, 0x00, 0x00, 0x00, 0x00, 0x00, 0x00, 0x00, 0x00, 0x00, 0x00,
  0x01, 0x00, 0x00, 0x00, 0x00, 0x00, 0x80, 0x3b, 0x19, 0x00, 0x00, 0x00,
  0x53, 0x74, 0x61, 0x74, 0x65, 0x66, 0x75, 0x6c, 0x50, 0x61, 0x72, 0x74,
  0x69, 0x74, 0x69, 0x6f, 0x6e, 0x65, 0x64, 0x43, 0x61, 0x6c, 0x6c, 0x3a,
  0x30, 0x00, 0x00, 0x00, 0x02, 0x00, 0x00, 0x00, 0x01, 0x00, 0x00, 0x00,
  0x0a, 0x00, 0x00, 0x00, 0x6a, 0xf3, 0xff, 0xff, 0x00, 0x00, 0x00, 0x01,
  0x18, 0x00, 0x00, 0x00, 0x20, 0x00, 0x00, 0x00, 0x3c, 0x00, 0x00, 0x00,
  0x10, 0x00, 0x00, 0x00, 0x00, 0x00, 0x00, 0x09, 0x50, 0x00, 0x00, 0x00,
  0x02, 0x00, 0x00, 0x00, 0xff, 0xff, 0xff, 0xff, 0x0a, 0x00, 0x00, 0x00,
  0x4c, 0xf3, 0xff, 0xff, 0x08, 0x00, 0x00, 0x00, 0x10, 0x00, 0x00, 0x00,
  0x01, 0x00, 0x00, 0x00, 0x80, 0xff, 0xff, 0xff, 0xff, 0xff, 0xff, 0xff,
  0x01, 0x00, 0x00, 0x00, 0x00, 0x00, 0x80, 0x3b, 0x1a, 0x00, 0x00, 0x00,
  0x53, 0x74, 0x61, 0x74, 0x65, 0x66, 0x75, 0x6c, 0x50, 0x61, 0x72, 0x74,
  0x69, 0x74, 0x69, 0x6f, 0x6e, 0x65, 0x64, 0x43, 0x61, 0x6c, 0x6c, 0x3a,
  0x30, 0x31, 0x00, 0x00, 0x02, 0x00, 0x00, 0x00, 0x01, 0x00, 0x00, 0x00,
  0x0a, 0x00, 0x00, 0x00, 0xe2, 0xf3, 0xff, 0xff, 0x00, 0x00, 0x00, 0x01,
  0x18, 0x00, 0x00, 0x00, 0x20, 0x00, 0x00, 0x00, 0x3c, 0x00, 0x00, 0x00,
  0x0f, 0x00, 0x00, 0x00, 0x00, 0x00, 0x00, 0x09, 0x70, 0x00, 0x00, 0x00,
  0x02, 0x00, 0x00, 0x00, 0xff, 0xff, 0xff, 0xff, 0x0a, 0x00, 0x00, 0x00,
  0xc4, 0xf3, 0xff, 0xff, 0x08, 0x00, 0x00, 0x00, 0x10, 0x00, 0x00, 0x00,
  0x01, 0x00, 0x00, 0x00, 0x33, 0x00, 0x00, 0x00, 0x00, 0x00, 0x00, 0x00,
  0x01, 0x00, 0x00, 0x00, 0x25, 0xc1, 0x09, 0x3e, 0x38, 0x00, 0x00, 0x00,
  0x73, 0x65, 0x71, 0x75, 0x65, 0x6e, 0x74, 0x69, 0x61, 0x6c, 0x5f, 0x31,
  0x2f, 0x64, 0x65, 0x6e, 0x73, 0x65, 0x5f, 0x31, 0x2f, 0x4d, 0x61, 0x74,
  0x4d, 0x75, 0x6c, 0x3b, 0x73, 0x65, 0x71, 0x75, 0x65, 0x6e, 0x74, 0x69,
  0x61, 0x6c, 0x5f, 0x31, 0x2f, 0x64, 0x65, 0x6e, 0x73, 0x65, 0x5f, 0x31,
  0x2f, 0x42, 0x69, 0x61, 0x73, 0x41, 0x64, 0x64, 0x00, 0x00, 0x00, 0x00,
  0x02, 0x00, 0x00, 0x00, 0x01, 0x00, 0x00, 0x00, 0x0a, 0x00, 0x00, 0x00,
  0x7a, 0xf4, 0xff, 0xff, 0x00, 0x00, 0x00, 0x01, 0x18, 0x00, 0x00, 0x00,
  0x20, 0x00, 0x00, 0x00, 0x40, 0x00, 0x00, 0x00, 0x0e, 0x00, 0x00, 0x00,
  0x00, 0x00, 0x00, 0x09, 0x58, 0x00, 0x00, 0x00, 0x02, 0x00, 0x00, 0x00,
  0xff, 0xff, 0xff, 0xff, 0x20, 0x03, 0x00, 0x00, 0x5c, 0xf4, 0xff, 0xff,
  0x08, 0x00, 0x00, 0x00, 0x14, 0x00, 0x00, 0x00, 0x01, 0x00, 0x00, 0x00,
  0x80, 0xff, 0xff, 0xff, 0xff, 0xff, 0xff, 0xff, 0x00, 0x00, 0x00, 0x00,
  0x01, 0x00, 0x00, 0x00, 0xd8, 0x1d, 0x8b, 0x3c, 0x1e, 0x00, 0x00, 0x00,
  0x73, 0x65, 0x71, 0x75, 0x65, 0x6e, 0x74, 0x69, 0x61, 0x6c, 0x5f, 0x31,
  0x2f, 0x66, 0x6c, 0x61, 0x74, 0x74, 0x65, 0x6e, 0x5f, 0x31, 0x2f, 0x52,
  0x65, 0x73, 0x68, 0x61, 0x70, 0x65, 0x00, 0x00, 0x02, 0x00, 0x00, 0x00,
  0x01, 0x00, 0x00, 0x00, 0x20, 0x03, 0x00, 0x00, 0xfa, 0xf4, 0xff, 0xff,
  0x00, 0x00, 0x00, 0x01, 0x18, 0x00, 0x00, 0x00, 0x28, 0x00, 0x00, 0x00,
  0x48, 0x00, 0x00, 0x00, 0x0d, 0x00, 0x00, 0x00, 0x00, 0x00, 0x00, 0x09,
  0x68, 0x00, 0x00, 0x00, 0x04, 0x00, 0x00, 0x00, 0xff, 0xff, 0xff, 0xff,
  0x05, 0x00, 0x00, 0x00, 0x05, 0x00, 0x00, 0x00, 0x20, 0x00, 0x00, 0x00,
  0xe4, 0xf4, 0xff, 0xff, 0x08, 0x00, 0x00, 0x00, 0x14, 0x00, 0x00, 0x00,
  0x01, 0x00, 0x00, 0x00, 0x80, 0xff, 0xff, 0xff, 0xff, 0xff, 0xff, 0xff,
  0x00, 0x00, 0x00, 0x00, 0x01, 0x00, 0x00, 0x00, 0xd8, 0x1d, 0x8b, 0x3c,
  0x24, 0x00, 0x00, 0x00, 0x73, 0x65, 0x71, 0x75, 0x65, 0x6e, 0x74, 0x69,
  0x61, 0x6c, 0x5f, 0x31, 0x2f, 0x6d, 0x61, 0x78, 0x5f, 0x70, 0x6f, 0x6f,
  0x6c, 0x69, 0x6e, 0x67, 0x32, 0x64, 0x5f, 0x33, 0x2f, 0x4d, 0x61, 0x78,
  0x50, 0x6f, 0x6f, 0x6c, 0x00, 0x00, 0x00, 0x00, 0x04, 0x00, 0x00, 0x00,
  0x01, 0x00, 0x00, 0x00, 0x05, 0x00, 0x00, 0x00, 0x05, 0x00, 0x00, 0x00,
  0x20, 0x00, 0x00, 0x00, 0x92, 0xf5, 0xff, 0xff, 0x00, 0x00, 0x00, 0x01,
  0x18, 0x00, 0x00, 0x00, 0x28, 0x00, 0x00, 0x00, 0x44, 0x00, 0x00, 0x00,
  0x0c, 0x00, 0x00, 0x00, 0x00, 0x00, 0x00, 0x09, 0xc0, 0x00, 0x00, 0x00,
  0x04, 0x00, 0x00, 0x00, 0xff, 0xff, 0xff, 0xff, 0x0b, 0x00, 0x00, 0x00,
  0x0b, 0x00, 0x00, 0x00, 0x20, 0x00, 0x00, 0x00, 0x7c, 0xf5, 0xff, 0xff,
  0x08, 0x00, 0x00, 0x00, 0x10, 0x00, 0x00, 0x00, 0x01, 0x00, 0x00, 0x00,
  0x80, 0xff, 0xff, 0xff, 0xff, 0xff, 0xff, 0xff, 0x01, 0x00, 0x00, 0x00,
  0xd8, 0x1d, 0x8b, 0x3c, 0x82, 0x00, 0x00, 0x00, 0x73, 0x65, 0x71, 0x75,
  0x65, 0x6e, 0x74, 0x69, 0x61, 0x6c, 0x5f, 0x31, 0x2f, 0x63, 0x6f, 0x6e,
  0x76, 0x32, 0x64, 0x5f, 0x33, 0x2f, 0x52, 0x65, 0x6c, 0x75, 0x3b, 0x73,
  0x65, 0x71, 0x75, 0x65, 0x6e, 0x74, 0x69, 0x61, 0x6c, 0x5f, 0x31, 0x2f,
  0x63, 0x6f, 0x6e, 0x76, 0x32, 0x64, 0x5f, 0x33, 0x2f, 0x42, 0x69, 0x61,
  0x73, 0x41, 0x64, 0x64, 0x3b, 0x73, 0x65, 0x71, 0x75, 0x65, 0x6e, 0x74,
  0x69, 0x61, 0x6c, 0x5f, 0x31, 0x2f, 0x63, 0x6f, 0x6e, 0x76, 0x32, 0x64,
  0x5f, 0x33, 0x2f, 0x43, 0x6f, 0x6e, 0x76, 0x32, 0x44, 0x3b, 0x73, 0x65,
  0x71, 0x75, 0x65, 0x6e, 0x74, 0x69, 0x61, 0x6c, 0x5f, 0x31, 0x2f, 0x63,
  0x6f, 0x6e, 0x76, 0x32, 0x64, 0x5f, 0x33, 0x2f, 0x42, 0x69, 0x61, 0x73,
  0x41, 0x64, 0x64, 0x2f, 0x52, 0x65, 0x61, 0x64, 0x56, 0x61, 0x72, 0x69,
  0x61, 0x62, 0x6c, 0x65, 0x4f, 0x70, 0x00, 0x00, 0x04, 0x00, 0x00, 0x00,
  0x01, 0x00, 0x00, 0x00, 0x0b, 0x00, 0x00, 0x00, 0x0b, 0x00, 0x00, 0x00,
  0x20, 0x00, 0x00, 0x00, 0x82, 0xf6, 0xff, 0xff, 0x00, 0x00, 0x00, 0x01,
  0x18, 0x00, 0x00, 0x00, 0x28, 0x00, 0x00, 0x00, 0x48, 0x00, 0x00, 0x00,
  0x0b, 0x00, 0x00, 0x00, 0x00, 0x00, 0x00, 0x09, 0x68, 0x00, 0x00, 0x00,
  0x04, 0x00, 0x00, 0x00, 0xff, 0xff, 0xff, 0xff, 0x0d, 0x00, 0x00, 0x00,
  0x0d, 0x00, 0x00, 0x00, 0x10, 0x00, 0x00, 0x00, 0x6c, 0xf6, 0xff, 0xff,
  0x08, 0x00, 0x00, 0x00, 0x14, 0x00, 0x00, 0x00, 0x01, 0x00, 0x00, 0x00,
  0x80, 0xff, 0xff, 0xff, 0xff, 0xff, 0xff, 0xff, 0x00, 0x00, 0x00, 0x00,
  0x01, 0x00, 0x00, 0x00, 0xed, 0x46, 0xcf, 0x3b, 0x24, 0x00, 0x00, 0x00,
  0x73, 0x65, 0x71, 0x75, 0x65, 0x6e, 0x74, 0x69, 0x61, 0x6c, 0x5f, 0x31,
  0x2f, 0x6d, 0x61, 0x78, 0x5f, 0x70, 0x6f, 0x6f, 0x6c, 0x69, 0x6e, 0x67,
  0x32, 0x64, 0x5f, 0x32, 0x2f, 0x4d, 0x61, 0x78, 0x50, 0x6f, 0x6f, 0x6c,
  0x00, 0x00, 0x00, 0x00, 0x04, 0x00, 0x00, 0x00, 0x01, 0x00, 0x00, 0x00,
  0x0d, 0x00, 0x00, 0x00, 0x0d, 0x00, 0x00, 0x00, 0x10, 0x00, 0x00, 0x00,
  0x1a, 0xf7, 0xff, 0xff, 0x00, 0x00, 0x00, 0x01, 0x18, 0x00, 0x00, 0x00,
  0x28, 0x00, 0x00, 0x00, 0x44, 0x00, 0x00, 0x00, 0x0a, 0x00, 0x00, 0x00,
  0x00, 0x00, 0x00, 0x09, 0xc0, 0x00, 0x00, 0x00, 0x04, 0x00, 0x00, 0x00,
  0xff, 0xff, 0xff, 0xff, 0x1a, 0x00, 0x00, 0x00, 0x1a, 0x00, 0x00, 0x00,
  0x10, 0x00, 0x00, 0x00, 0x04, 0xf7, 0xff, 0xff, 0x08, 0x00, 0x00, 0x00,
  0x10, 0x00, 0x00, 0x00, 0x01, 0x00, 0x00, 0x00, 0x80, 0xff, 0xff, 0xff,
  0xff, 0xff, 0xff, 0xff, 0x01, 0x00, 0x00, 0x00, 0xed, 0x46, 0xcf, 0x3b,
  0x82, 0x00, 0x00, 0x00, 0x73, 0x65, 0x71, 0x75, 0x65, 0x6e, 0x74, 0x69,
  0x61, 0x6c, 0x5f, 0x31, 0x2f, 0x63, 0x6f, 0x6e, 0x76, 0x32, 0x64, 0x5f,
  0x32, 0x2f, 0x52, 0x65, 0x6c, 0x75, 0x3b, 0x73, 0x65, 0x71, 0x75, 0x65,
  0x6e, 0x74, 0x69, 0x61, 0x6c, 0x5f, 0x31, 0x2f, 0x63, 0x6f, 0x6e, 0x76,
  0x32, 0x64, 0x5f, 0x32, 0x2f, 0x42, 0x69, 0x61, 0x73, 0x41, 0x64, 0x64,
  0x3b, 0x73, 0x65, 0x71, 0x75, 0x65, 0x6e, 0x74, 0x69, 0x61, 0x6c, 0x5f,
  0x31, 0x2f, 0x63, 0x6f, 0x6e, 0x76, 0x32, 0x64, 0x5f, 0x32, 0x2f, 0x43,
  0x6f, 0x6e, 0x76, 0x32, 0x44, 0x3b, 0x73, 0x65, 0x71, 0x75, 0x65, 0x6e,
  0x74, 0x69, 0x61, 0x6c, 0x5f, 0x31, 0x2f, 0x63, 0x6f, 0x6e, 0x76, 0x32,
  0x64, 0x5f, 0x32, 0x2f, 0x42, 0x69, 0x61, 0x73, 0x41, 0x64, 0x64, 0x2f,
  0x52, 0x65, 0x61, 0x64, 0x56, 0x61, 0x72, 0x69, 0x61, 0x62, 0x6c, 0x65,
  0x4f, 0x70, 0x00, 0x00, 0x04, 0x00, 0x00, 0x00, 0x01, 0x00, 0x00, 0x00,
  0x1a, 0x00, 0x00, 0x00, 0x1a, 0x00, 0x00, 0x00, 0x10, 0x00, 0x00, 0x00,
  0x0a, 0xf8, 0xff, 0xff, 0x00, 0x00, 0x00, 0x01, 0x18, 0x00, 0x00, 0x00,
  0x28, 0x00, 0x00, 0x00, 0x48, 0x00, 0x00, 0x00, 0x09, 0x00, 0x00, 0x00,
  0x00, 0x00, 0x00, 0x09, 0x50, 0x00, 0x00, 0x00, 0x04, 0x00, 0x00, 0x00,
  0xff, 0xff, 0xff, 0xff, 0x1c, 0x00, 0x00, 0x00, 0x1c, 0x00, 0x00, 0x00,
  0x01, 0x00, 0x00, 0x00, 0xf4, 0xf7, 0xff, 0xff, 0x08, 0x00, 0x00, 0x00,
  0x14, 0x00, 0x00, 0x00, 0x01, 0x00, 0x00, 0x00, 0x80, 0xff, 0xff, 0xff,
  0xff, 0xff, 0xff, 0xff, 0x00, 0x00, 0x00, 0x00, 0x01, 0x00, 0x00, 0x00,
  0x81, 0x80, 0x80, 0x3b, 0x0c, 0x00, 0x00, 0x00, 0x74, 0x66, 0x6c, 0x2e,
  0x71, 0x75, 0x61, 0x6e, 0x74, 0x69, 0x7a, 0x65, 0x00, 0x00, 0x00, 0x00,
  0x04, 0x00, 0x00, 0x00, 0x01, 0x00, 0x00, 0x00, 0x1c, 0x00, 0x00, 0x00,
  0x1c, 0x00, 0x00, 0x00, 0x01, 0x00, 0x00, 0x00, 0xf2, 0xf8, 0xff, 0xff,
  0x00, 0x00, 0x00, 0x01, 0x14, 0x00, 0x00, 0x00, 0xe4, 0x00, 0x00, 0x00,
  0x08, 0x00, 0x00, 0x00, 0x00, 0x00, 0x00, 0x09, 0xfc, 0x00, 0x00, 0x00,
  0x5c, 0xf8, 0xff, 0xff, 0x08, 0x00, 0x00, 0x00, 0x88, 0x00, 0x00, 0x00,
  0x10, 0x00, 0x00, 0x00, 0x00, 0x00, 0x00, 0x00, 0x00, 0x00, 0x00, 0x00,
  0x00, 0x00, 0x00, 0x00, 0x00, 0x00, 0x00, 0x00, 0x00, 0x00, 0x00, 0x00,
  0x00, 0x00, 0x00, 0x00, 0x00, 0x00, 0x00, 0x00, 0x00, 0x00, 0x00, 0x00,
  0x00, 0x00, 0x00, 0x00, 0x00, 0x00, 0x00, 0x00, 0x00, 0x00, 0x00, 0x00,
  0x00, 0x00, 0x00, 0x00, 0x00, 0x00, 0x00, 0x00, 0x00, 0x00, 0x00, 0x00,
  0x00, 0x00, 0x00, 0x00, 0x00, 0x00, 0x00, 0x00, 0x00, 0x00, 0x00, 0x00,
  0x00, 0x00, 0x00, 0x00, 0x00, 0x00, 0x00, 0x00, 0x00, 0x00, 0x00, 0x00,
  0x00, 0x00, 0x00, 0x00, 0x00, 0x00, 0x00, 0x00, 0x00, 0x00, 0x00, 0x00,
  0x00, 0x00, 0x00, 0x00, 0x00, 0x00, 0x00, 0x00, 0x00, 0x00, 0x00, 0x00,
  0x00, 0x00, 0x00, 0x00, 0x00, 0x00, 0x00, 0x00, 0x00, 0x00, 0x00, 0x00,
  0x00, 0x00, 0x00, 0x00, 0x00, 0x00, 0x00, 0x00, 0x00, 0x00, 0x00, 0x00,
  0x10, 0x00, 0x00, 0x00, 0x9d, 0xa2, 0x94, 0x3b, 0x1e, 0x0f, 0x52, 0x3b,
  0x28, 0x48, 0xc9, 0x3b, 0xc5, 0x17, 0x95, 0x3b, 0xca, 0xcc, 0x8f, 0x3b,
  0x14, 0xc4, 0x63, 0x3b, 0xb7, 0x98, 0x81, 0x3b, 0xdc, 0x85, 0x94, 0x3b,
  0x8b, 0x4b, 0x3e, 0x3b, 0x48, 0x60, 0x6f, 0x3b, 0x4f, 0x3e, 0x8a, 0x3b,
  0x83, 0xa7, 0x8e, 0x3b, 0x2f, 0x22, 0x76, 0x3b, 0x2f, 0x20, 0xbc, 0x3b,
  0xe3, 0x82, 0xbe, 0x3b, 0xdd, 0xcb, 0x5c, 0x3b, 0x1c, 0x00, 0x00, 0x00,
  0x73, 0x65, 0x71, 0x75, 0x65, 0x6e, 0x74, 0x69, 0x61, 0x6c, 0x5f, 0x31,
  0x2f, 0x63, 0x6f, 0x6e, 0x76, 0x32, 0x64, 0x5f, 0x32, 0x2f, 0x43, 0x6f,
  0x6e, 0x76, 0x32, 0x44, 0x00, 0x00, 0x00, 0x00, 0x04, 0x00, 0x00, 0x00,
  0x10, 0x00, 0x00, 0x00, 0x03, 0x00, 0x00, 0x00, 0x03, 0x00, 0x00, 0x00,
  0x01, 0x00, 0x00, 0x00, 0x1a, 0xfa, 0xff, 0xff, 0x00, 0x00, 0x00, 0x01,
  0x14, 0x00, 0x00, 0x00, 0xe8, 0x00, 0x00, 0x00, 0x07, 0x00, 0x00, 0x00,
  0x00, 0x00, 0x00, 0x02, 0x10, 0x01, 0x00, 0x00, 0x84, 0xf9, 0xff, 0xff,
  0x08, 0x00, 0x00, 0x00, 0x8c, 0x00, 0x00, 0x00, 0x10, 0x00, 0x00, 0x00,
  0x00, 0x00, 0x00, 0x00, 0x00, 0x00, 0x00, 0x00, 0x00, 0x00, 0x00, 0x00,
  0x00, 0x00, 0x00, 0x00, 0x00, 0x00, 0x00, 0x00, 0x00, 0x00, 0x00, 0x00,
  0x00, 0x00, 0x00, 0x00, 0x00, 0x00, 0x00, 0x00, 0x00, 0x00, 0x00, 0x00,
  0x00, 0x00, 0x00, 0x00, 0x00, 0x00, 0x00, 0x00, 0x00, 0x00, 0x00, 0x00,
  0x00, 0x00, 0x00, 0x00, 0x00, 0x00, 0x00, 0x00, 0x00, 0x00, 0x00, 0x00,
  0x00, 0x00, 0x00, 0x00, 0x00, 0x00, 0x00, 0x00, 0x00, 0x00, 0x00, 0x00,
  0x00, 0x00, 0x00, 0x00, 0x00, 0x00, 0x00, 0x00, 0x00, 0x00, 0x00, 0x00,
  0x00, 0x00, 0x00, 0x00, 0x00, 0x00, 0x00, 0x00, 0x00, 0x00, 0x00, 0x00,
